{
  "version": "1.0",
  "truncation": {
    "direction": "Right",
    "max_length": 512,
    "strategy": "LongestFirst",
    "stride": 3
  },
  "padding": {
    "strategy": {
      "Fixed": 512
    },
    "direction": "Right",
    "pad_to_multiple_of": null,
    "pad_id": 3,
    "pad_type_id": 0,
    "pad_token": "[PAD]"
  },
  "added_tokens": [
    {
      "id": 0,
      "content": "[UNK]",
      "single_word": false,
      "lstrip": false,
      "rstrip": false,
      "normalized": false,
      "special": true
    },
    {
      "id": 1,
      "content": "[CLS]",
      "single_word": false,
      "lstrip": false,
      "rstrip": false,
      "normalized": false,
      "special": true
    },
    {
      "id": 2,
      "content": "[SEP]",
      "single_word": false,
      "lstrip": false,
      "rstrip": false,
      "normalized": false,
      "special": true
    },
    {
      "id": 3,
      "content": "[PAD]",
      "single_word": false,
      "lstrip": false,
      "rstrip": false,
      "normalized": false,
      "special": true
    },
    {
      "id": 4,
      "content": "[MASK]",
      "single_word": false,
      "lstrip": false,
      "rstrip": false,
      "normalized": false,
      "special": true
    },
    {
      "id": 5,
      "content": "[BOS]",
      "single_word": false,
      "lstrip": false,
      "rstrip": false,
      "normalized": false,
      "special": true
    },
    {
      "id": 6,
      "content": "[EOS]",
      "single_word": false,
      "lstrip": false,
      "rstrip": false,
      "normalized": false,
      "special": true
    },
    {
      "id": 7,
      "content": "[MASK_0]",
      "single_word": false,
      "lstrip": false,
      "rstrip": false,
      "normalized": false,
      "special": true
    },
    {
      "id": 8,
      "content": "[MASK_1]",
      "single_word": false,
      "lstrip": false,
      "rstrip": false,
      "normalized": false,
      "special": true
    },
    {
      "id": 9,
      "content": "[MASK_2]",
      "single_word": false,
      "lstrip": false,
      "rstrip": false,
      "normalized": false,
      "special": true
    },
    {
      "id": 10,
      "content": "[MASK_3]",
      "single_word": false,
      "lstrip": false,
      "rstrip": false,
      "normalized": false,
      "special": true
    },
    {
      "id": 11,
      "content": "[MASK_4]",
      "single_word": false,
      "lstrip": false,
      "rstrip": false,
      "normalized": false,
      "special": true
    },
    {
      "id": 12,
      "content": "[MASK_5]",
      "single_word": false,
      "lstrip": false,
      "rstrip": false,
      "normalized": false,
      "special": true
    },
    {
      "id": 13,
      "content": "[MASK_6]",
      "single_word": false,
      "lstrip": false,
      "rstrip": false,
      "normalized": false,
      "special": true
    },
    {
      "id": 14,
      "content": "[MASK_7]",
      "single_word": false,
      "lstrip": false,
      "rstrip": false,
      "normalized": false,
      "special": true
    },
    {
      "id": 15,
      "content": "[MASK_8]",
      "single_word": false,
      "lstrip": false,
      "rstrip": false,
      "normalized": false,
      "special": true
    },
    {
      "id": 16,
      "content": "[MASK_9]",
      "single_word": false,
      "lstrip": false,
      "rstrip": false,
      "normalized": false,
      "special": true
    },
    {
      "id": 17,
      "content": "[MASK_10]",
      "single_word": false,
      "lstrip": false,
      "rstrip": false,
      "normalized": false,
      "special": true
    },
    {
      "id": 18,
      "content": "[MASK_11]",
      "single_word": false,
      "lstrip": false,
      "rstrip": false,
      "normalized": false,
      "special": true
    },
    {
      "id": 19,
      "content": "[MASK_12]",
      "single_word": false,
      "lstrip": false,
      "rstrip": false,
      "normalized": false,
      "special": true
    },
    {
      "id": 20,
      "content": "[MASK_13]",
      "single_word": false,
      "lstrip": false,
      "rstrip": false,
      "normalized": false,
      "special": true
    },
    {
      "id": 21,
      "content": "[MASK_14]",
      "single_word": false,
      "lstrip": false,
      "rstrip": false,
      "normalized": false,
      "special": true
    },
    {
      "id": 22,
      "content": "[MASK_15]",
      "single_word": false,
      "lstrip": false,
      "rstrip": false,
      "normalized": false,
      "special": true
    },
    {
      "id": 23,
      "content": "[MASK_16]",
      "single_word": false,
      "lstrip": false,
      "rstrip": false,
      "normalized": false,
      "special": true
    },
    {
      "id": 24,
      "content": "[MASK_17]",
      "single_word": false,
      "lstrip": false,
      "rstrip": false,
      "normalized": false,
      "special": true
    },
    {
      "id": 25,
      "content": "[MASK_18]",
      "single_word": false,
      "lstrip": false,
      "rstrip": false,
      "normalized": false,
      "special": true
    },
    {
      "id": 26,
      "content": "[MASK_19]",
      "single_word": false,
      "lstrip": false,
      "rstrip": false,
      "normalized": false,
      "special": true
    },
    {
      "id": 27,
      "content": "[MASK_20]",
      "single_word": false,
      "lstrip": false,
      "rstrip": false,
      "normalized": false,
      "special": true
    },
    {
      "id": 28,
      "content": "[MASK_21]",
      "single_word": false,
      "lstrip": false,
      "rstrip": false,
      "normalized": false,
      "special": true
    },
    {
      "id": 29,
      "content": "[MASK_22]",
      "single_word": false,
      "lstrip": false,
      "rstrip": false,
      "normalized": false,
      "special": true
    },
    {
      "id": 30,
      "content": "[MASK_23]",
      "single_word": false,
      "lstrip": false,
      "rstrip": false,
      "normalized": false,
      "special": true
    },
    {
      "id": 31,
      "content": "[MASK_24]",
      "single_word": false,
      "lstrip": false,
      "rstrip": false,
      "normalized": false,
      "special": true
    },
    {
      "id": 32,
      "content": "[MASK_25]",
      "single_word": false,
      "lstrip": false,
      "rstrip": false,
      "normalized": false,
      "special": true
    },
    {
      "id": 33,
      "content": "[MASK_26]",
      "single_word": false,
      "lstrip": false,
      "rstrip": false,
      "normalized": false,
      "special": true
    },
    {
      "id": 34,
      "content": "[MASK_27]",
      "single_word": false,
      "lstrip": false,
      "rstrip": false,
      "normalized": false,
      "special": true
    },
    {
      "id": 35,
      "content": "[MASK_28]",
      "single_word": false,
      "lstrip": false,
      "rstrip": false,
      "normalized": false,
      "special": true
    },
    {
      "id": 36,
      "content": "[MASK_29]",
      "single_word": false,
      "lstrip": false,
      "rstrip": false,
      "normalized": false,
      "special": true
    },
    {
      "id": 37,
      "content": "[MASK_30]",
      "single_word": false,
      "lstrip": false,
      "rstrip": false,
      "normalized": false,
      "special": true
    },
    {
      "id": 38,
      "content": "[MASK_31]",
      "single_word": false,
      "lstrip": false,
      "rstrip": false,
      "normalized": false,
      "special": true
    },
    {
      "id": 39,
      "content": "[MASK_32]",
      "single_word": false,
      "lstrip": false,
      "rstrip": false,
      "normalized": false,
      "special": true
    },
    {
      "id": 40,
      "content": "[MASK_33]",
      "single_word": false,
      "lstrip": false,
      "rstrip": false,
      "normalized": false,
      "special": true
    },
    {
      "id": 41,
      "content": "[MASK_34]",
      "single_word": false,
      "lstrip": false,
      "rstrip": false,
      "normalized": false,
      "special": true
    },
    {
      "id": 42,
      "content": "[MASK_35]",
      "single_word": false,
      "lstrip": false,
      "rstrip": false,
      "normalized": false,
      "special": true
    },
    {
      "id": 43,
      "content": "[MASK_36]",
      "single_word": false,
      "lstrip": false,
      "rstrip": false,
      "normalized": false,
      "special": true
    },
    {
      "id": 44,
      "content": "[MASK_37]",
      "single_word": false,
      "lstrip": false,
      "rstrip": false,
      "normalized": false,
      "special": true
    },
    {
      "id": 45,
      "content": "[MASK_38]",
      "single_word": false,
      "lstrip": false,
      "rstrip": false,
      "normalized": false,
      "special": true
    },
    {
      "id": 46,
      "content": "[MASK_39]",
      "single_word": false,
      "lstrip": false,
      "rstrip": false,
      "normalized": false,
      "special": true
    },
    {
      "id": 47,
      "content": "[MASK_40]",
      "single_word": false,
      "lstrip": false,
      "rstrip": false,
      "normalized": false,
      "special": true
    },
    {
      "id": 48,
      "content": "[MASK_41]",
      "single_word": false,
      "lstrip": false,
      "rstrip": false,
      "normalized": false,
      "special": true
    },
    {
      "id": 49,
      "content": "[MASK_42]",
      "single_word": false,
      "lstrip": false,
      "rstrip": false,
      "normalized": false,
      "special": true
    },
    {
      "id": 50,
      "content": "[MASK_43]",
      "single_word": false,
      "lstrip": false,
      "rstrip": false,
      "normalized": false,
      "special": true
    },
    {
      "id": 51,
      "content": "[MASK_44]",
      "single_word": false,
      "lstrip": false,
      "rstrip": false,
      "normalized": false,
      "special": true
    },
    {
      "id": 52,
      "content": "[MASK_45]",
      "single_word": false,
      "lstrip": false,
      "rstrip": false,
      "normalized": false,
      "special": true
    },
    {
      "id": 53,
      "content": "[MASK_46]",
      "single_word": false,
      "lstrip": false,
      "rstrip": false,
      "normalized": false,
      "special": true
    },
    {
      "id": 54,
      "content": "[MASK_47]",
      "single_word": false,
      "lstrip": false,
      "rstrip": false,
      "normalized": false,
      "special": true
    },
    {
      "id": 55,
      "content": "[MASK_48]",
      "single_word": false,
      "lstrip": false,
      "rstrip": false,
      "normalized": false,
      "special": true
    },
    {
      "id": 56,
      "content": "[MASK_49]",
      "single_word": false,
      "lstrip": false,
      "rstrip": false,
      "normalized": false,
      "special": true
    },
    {
      "id": 57,
      "content": "[MASK_50]",
      "single_word": false,
      "lstrip": false,
      "rstrip": false,
      "normalized": false,
      "special": true
    },
    {
      "id": 58,
      "content": "[MASK_51]",
      "single_word": false,
      "lstrip": false,
      "rstrip": false,
      "normalized": false,
      "special": true
    },
    {
      "id": 59,
      "content": "[MASK_52]",
      "single_word": false,
      "lstrip": false,
      "rstrip": false,
      "normalized": false,
      "special": true
    },
    {
      "id": 60,
      "content": "[MASK_53]",
      "single_word": false,
      "lstrip": false,
      "rstrip": false,
      "normalized": false,
      "special": true
    },
    {
      "id": 61,
      "content": "[MASK_54]",
      "single_word": false,
      "lstrip": false,
      "rstrip": false,
      "normalized": false,
      "special": true
    },
    {
      "id": 62,
      "content": "[MASK_55]",
      "single_word": false,
      "lstrip": false,
      "rstrip": false,
      "normalized": false,
      "special": true
    },
    {
      "id": 63,
      "content": "[MASK_56]",
      "single_word": false,
      "lstrip": false,
      "rstrip": false,
      "normalized": false,
      "special": true
    },
    {
      "id": 64,
      "content": "[MASK_57]",
      "single_word": false,
      "lstrip": false,
      "rstrip": false,
      "normalized": false,
      "special": true
    },
    {
      "id": 65,
      "content": "[MASK_58]",
      "single_word": false,
      "lstrip": false,
      "rstrip": false,
      "normalized": false,
      "special": true
    },
    {
      "id": 66,
      "content": "[MASK_59]",
      "single_word": false,
      "lstrip": false,
      "rstrip": false,
      "normalized": false,
      "special": true
    },
    {
      "id": 67,
      "content": "[MASK_60]",
      "single_word": false,
      "lstrip": false,
      "rstrip": false,
      "normalized": false,
      "special": true
    },
    {
      "id": 68,
      "content": "[MASK_61]",
      "single_word": false,
      "lstrip": false,
      "rstrip": false,
      "normalized": false,
      "special": true
    },
    {
      "id": 69,
      "content": "[MASK_62]",
      "single_word": false,
      "lstrip": false,
      "rstrip": false,
      "normalized": false,
      "special": true
    },
    {
      "id": 70,
      "content": "[MASK_63]",
      "single_word": false,
      "lstrip": false,
      "rstrip": false,
      "normalized": false,
      "special": true
    },
    {
      "id": 71,
      "content": "[MASK_64]",
      "single_word": false,
      "lstrip": false,
      "rstrip": false,
      "normalized": false,
      "special": true
    },
    {
      "id": 72,
      "content": "[MASK_65]",
      "single_word": false,
      "lstrip": false,
      "rstrip": false,
      "normalized": false,
      "special": true
    },
    {
      "id": 73,
      "content": "[MASK_66]",
      "single_word": false,
      "lstrip": false,
      "rstrip": false,
      "normalized": false,
      "special": true
    },
    {
      "id": 74,
      "content": "[MASK_67]",
      "single_word": false,
      "lstrip": false,
      "rstrip": false,
      "normalized": false,
      "special": true
    },
    {
      "id": 75,
      "content": "[MASK_68]",
      "single_word": false,
      "lstrip": false,
      "rstrip": false,
      "normalized": false,
      "special": true
    },
    {
      "id": 76,
      "content": "[MASK_69]",
      "single_word": false,
      "lstrip": false,
      "rstrip": false,
      "normalized": false,
      "special": true
    },
    {
      "id": 77,
      "content": "[MASK_70]",
      "single_word": false,
      "lstrip": false,
      "rstrip": false,
      "normalized": false,
      "special": true
    },
    {
      "id": 78,
      "content": "[MASK_71]",
      "single_word": false,
      "lstrip": false,
      "rstrip": false,
      "normalized": false,
      "special": true
    },
    {
      "id": 79,
      "content": "[MASK_72]",
      "single_word": false,
      "lstrip": false,
      "rstrip": false,
      "normalized": false,
      "special": true
    },
    {
      "id": 80,
      "content": "[MASK_73]",
      "single_word": false,
      "lstrip": false,
      "rstrip": false,
      "normalized": false,
      "special": true
    },
    {
      "id": 81,
      "content": "[MASK_74]",
      "single_word": false,
      "lstrip": false,
      "rstrip": false,
      "normalized": false,
      "special": true
    },
    {
      "id": 82,
      "content": "[MASK_75]",
      "single_word": false,
      "lstrip": false,
      "rstrip": false,
      "normalized": false,
      "special": true
    },
    {
      "id": 83,
      "content": "[MASK_76]",
      "single_word": false,
      "lstrip": false,
      "rstrip": false,
      "normalized": false,
      "special": true
    },
    {
      "id": 84,
      "content": "[MASK_77]",
      "single_word": false,
      "lstrip": false,
      "rstrip": false,
      "normalized": false,
      "special": true
    },
    {
      "id": 85,
      "content": "[MASK_78]",
      "single_word": false,
      "lstrip": false,
      "rstrip": false,
      "normalized": false,
      "special": true
    },
    {
      "id": 86,
      "content": "[MASK_79]",
      "single_word": false,
      "lstrip": false,
      "rstrip": false,
      "normalized": false,
      "special": true
    },
    {
      "id": 87,
      "content": "[MASK_80]",
      "single_word": false,
      "lstrip": false,
      "rstrip": false,
      "normalized": false,
      "special": true
    },
    {
      "id": 88,
      "content": "[MASK_81]",
      "single_word": false,
      "lstrip": false,
      "rstrip": false,
      "normalized": false,
      "special": true
    },
    {
      "id": 89,
      "content": "[MASK_82]",
      "single_word": false,
      "lstrip": false,
      "rstrip": false,
      "normalized": false,
      "special": true
    },
    {
      "id": 90,
      "content": "[MASK_83]",
      "single_word": false,
      "lstrip": false,
      "rstrip": false,
      "normalized": false,
      "special": true
    },
    {
      "id": 91,
      "content": "[MASK_84]",
      "single_word": false,
      "lstrip": false,
      "rstrip": false,
      "normalized": false,
      "special": true
    },
    {
      "id": 92,
      "content": "[MASK_85]",
      "single_word": false,
      "lstrip": false,
      "rstrip": false,
      "normalized": false,
      "special": true
    },
    {
      "id": 93,
      "content": "[MASK_86]",
      "single_word": false,
      "lstrip": false,
      "rstrip": false,
      "normalized": false,
      "special": true
    },
    {
      "id": 94,
      "content": "[MASK_87]",
      "single_word": false,
      "lstrip": false,
      "rstrip": false,
      "normalized": false,
      "special": true
    },
    {
      "id": 95,
      "content": "[MASK_88]",
      "single_word": false,
      "lstrip": false,
      "rstrip": false,
      "normalized": false,
      "special": true
    },
    {
      "id": 96,
      "content": "[MASK_89]",
      "single_word": false,
      "lstrip": false,
      "rstrip": false,
      "normalized": false,
      "special": true
    },
    {
      "id": 97,
      "content": "[MASK_90]",
      "single_word": false,
      "lstrip": false,
      "rstrip": false,
      "normalized": false,
      "special": true
    },
    {
      "id": 98,
      "content": "[MASK_91]",
      "single_word": false,
      "lstrip": false,
      "rstrip": false,
      "normalized": false,
      "special": true
    },
    {
      "id": 99,
      "content": "[MASK_92]",
      "single_word": false,
      "lstrip": false,
      "rstrip": false,
      "normalized": false,
      "special": true
    },
    {
      "id": 100,
      "content": "[MASK_93]",
      "single_word": false,
      "lstrip": false,
      "rstrip": false,
      "normalized": false,
      "special": true
    },
    {
      "id": 101,
      "content": "[MASK_94]",
      "single_word": false,
      "lstrip": false,
      "rstrip": false,
      "normalized": false,
      "special": true
    },
    {
      "id": 102,
      "content": "[MASK_95]",
      "single_word": false,
      "lstrip": false,
      "rstrip": false,
      "normalized": false,
      "special": true
    },
    {
      "id": 103,
      "content": "[MASK_96]",
      "single_word": false,
      "lstrip": false,
      "rstrip": false,
      "normalized": false,
      "special": true
    },
    {
      "id": 104,
      "content": "[MASK_97]",
      "single_word": false,
      "lstrip": false,
      "rstrip": false,
      "normalized": false,
      "special": true
    },
    {
      "id": 105,
      "content": "[MASK_98]",
      "single_word": false,
      "lstrip": false,
      "rstrip": false,
      "normalized": false,
      "special": true
    },
    {
      "id": 106,
      "content": "[MASK_99]",
      "single_word": false,
      "lstrip": false,
      "rstrip": false,
      "normalized": false,
      "special": true
    }
  ],
  "normalizer": null,
  "pre_tokenizer": {
    "type": "ByteLevel",
    "add_prefix_space": true,
    "trim_offsets": true,
    "use_regex": true
  },
  "post_processor": {
    "type": "TemplateProcessing",
    "single": [
      {
        "SpecialToken": {
          "id": "[CLS]",
          "type_id": 0
        }
      },
      {
        "Sequence": {
          "id": "A",
          "type_id": 0
        }
      },
      {
        "SpecialToken": {
          "id": "[SEP]",
          "type_id": 0
        }
      }
    ],
    "pair": [
      {
        "SpecialToken": {
          "id": "[CLS]",
          "type_id": 0
        }
      },
      {
        "Sequence": {
          "id": "A",
          "type_id": 0
        }
      },
      {
        "SpecialToken": {
          "id": "[SEP]",
          "type_id": 0
        }
      },
      {
        "Sequence": {
          "id": "B",
          "type_id": 1
        }
      },
      {
        "SpecialToken": {
          "id": "[SEP]",
          "type_id": 1
        }
      }
    ],
    "special_tokens": {
      "[CLS]": {
        "id": "[CLS]",
        "ids": [
          1
        ],
        "tokens": [
          "[CLS]"
        ]
      },
      "[SEP]": {
        "id": "[SEP]",
        "ids": [
          2
        ],
        "tokens": [
          "[SEP]"
        ]
      }
    }
  },
  "decoder": {
    "type": "ByteLevel",
    "add_prefix_space": true,
    "trim_offsets": true,
    "use_regex": true
  },
  "model": {
    "type": "WordPiece",
    "unk_token": "[UNK]",
    "continuing_subword_prefix": "",
    "max_input_chars_per_word": 100,
    "vocab": {
      "[UNK]": 0,
      "[CLS]": 1,
      "[SEP]": 2,
      "[PAD]": 3,
      "[MASK]": 4,
      "[BOS]": 5,
      "[EOS]": 6,
      "[MASK_0]": 7,
      "[MASK_1]": 8,
      "[MASK_2]": 9,
      "[MASK_3]": 10,
      "[MASK_4]": 11,
      "[MASK_5]": 12,
      "[MASK_6]": 13,
      "[MASK_7]": 14,
      "[MASK_8]": 15,
      "[MASK_9]": 16,
      "[MASK_10]": 17,
      "[MASK_11]": 18,
      "[MASK_12]": 19,
      "[MASK_13]": 20,
      "[MASK_14]": 21,
      "[MASK_15]": 22,
      "[MASK_16]": 23,
      "[MASK_17]": 24,
      "[MASK_18]": 25,
      "[MASK_19]": 26,
      "[MASK_20]": 27,
      "[MASK_21]": 28,
      "[MASK_22]": 29,
      "[MASK_23]": 30,
      "[MASK_24]": 31,
      "[MASK_25]": 32,
      "[MASK_26]": 33,
      "[MASK_27]": 34,
      "[MASK_28]": 35,
      "[MASK_29]": 36,
      "[MASK_30]": 37,
      "[MASK_31]": 38,
      "[MASK_32]": 39,
      "[MASK_33]": 40,
      "[MASK_34]": 41,
      "[MASK_35]": 42,
      "[MASK_36]": 43,
      "[MASK_37]": 44,
      "[MASK_38]": 45,
      "[MASK_39]": 46,
      "[MASK_40]": 47,
      "[MASK_41]": 48,
      "[MASK_42]": 49,
      "[MASK_43]": 50,
      "[MASK_44]": 51,
      "[MASK_45]": 52,
      "[MASK_46]": 53,
      "[MASK_47]": 54,
      "[MASK_48]": 55,
      "[MASK_49]": 56,
      "[MASK_50]": 57,
      "[MASK_51]": 58,
      "[MASK_52]": 59,
      "[MASK_53]": 60,
      "[MASK_54]": 61,
      "[MASK_55]": 62,
      "[MASK_56]": 63,
      "[MASK_57]": 64,
      "[MASK_58]": 65,
      "[MASK_59]": 66,
      "[MASK_60]": 67,
      "[MASK_61]": 68,
      "[MASK_62]": 69,
      "[MASK_63]": 70,
      "[MASK_64]": 71,
      "[MASK_65]": 72,
      "[MASK_66]": 73,
      "[MASK_67]": 74,
      "[MASK_68]": 75,
      "[MASK_69]": 76,
      "[MASK_70]": 77,
      "[MASK_71]": 78,
      "[MASK_72]": 79,
      "[MASK_73]": 80,
      "[MASK_74]": 81,
      "[MASK_75]": 82,
      "[MASK_76]": 83,
      "[MASK_77]": 84,
      "[MASK_78]": 85,
      "[MASK_79]": 86,
      "[MASK_80]": 87,
      "[MASK_81]": 88,
      "[MASK_82]": 89,
      "[MASK_83]": 90,
      "[MASK_84]": 91,
      "[MASK_85]": 92,
      "[MASK_86]": 93,
      "[MASK_87]": 94,
      "[MASK_88]": 95,
      "[MASK_89]": 96,
      "[MASK_90]": 97,
      "[MASK_91]": 98,
      "[MASK_92]": 99,
      "[MASK_93]": 100,
      "[MASK_94]": 101,
      "[MASK_95]": 102,
      "[MASK_96]": 103,
      "[MASK_97]": 104,
      "[MASK_98]": 105,
      "[MASK_99]": 106,
      "!": 107,
      "\"": 108,
      "#": 109,
      "$": 110,
      "%": 111,
      "&": 112,
      "'": 113,
      "(": 114,
      ")": 115,
      "*": 116,
      "+": 117,
      ",": 118,
      "-": 119,
      ".": 120,
      "/": 121,
      "0": 122,
      "1": 123,
      "2": 124,
      "3": 125,
      "4": 126,
      "5": 127,
      "6": 128,
      "7": 129,
      "8": 130,
      "9": 131,
      ":": 132,
      ";": 133,
      "<": 134,
      "=": 135,
      ">": 136,
      "?": 137,
      "@": 138,
      "A": 139,
      "B": 140,
      "C": 141,
      "D": 142,
      "E": 143,
      "F": 144,
      "G": 145,
      "H": 146,
      "I": 147,
      "J": 148,
      "K": 149,
      "L": 150,
      "M": 151,
      "N": 152,
      "O": 153,
      "P": 154,
      "Q": 155,
      "R": 156,
      "S": 157,
      "T": 158,
      "U": 159,
      "V": 160,
      "W": 161,
      "X": 162,
      "Y": 163,
      "Z": 164,
      "[": 165,
      "\\": 166,
      "]": 167,
      "^": 168,
      "_": 169,
      "`": 170,
      "a": 171,
      "b": 172,
      "c": 173,
      "d": 174,
      "e": 175,
      "f": 176,
      "g": 177,
      "h": 178,
      "i": 179,
      "j": 180,
      "k": 181,
      "l": 182,
      "m": 183,
      "n": 184,
      "o": 185,
      "p": 186,
      "q": 187,
      "r": 188,
      "s": 189,
      "t": 190,
      "u": 191,
      "v": 192,
      "w": 193,
      "x": 194,
      "y": 195,
      "z": 196,
      "{": 197,
      "|": 198,
      "}": 199,
      "~": 200,
      "¡": 201,
      "¢": 202,
      "£": 203,
      "¤": 204,
      "¥": 205,
      "¦": 206,
      "§": 207,
      "¨": 208,
      "©": 209,
      "ª": 210,
      "«": 211,
      "¬": 212,
      "®": 213,
      "¯": 214,
      "°": 215,
      "±": 216,
      "²": 217,
      "³": 218,
      "´": 219,
      "µ": 220,
      "¶": 221,
      "·": 222,
      "¸": 223,
      "¹": 224,
      "º": 225,
      "»": 226,
      "¼": 227,
      "½": 228,
      "¾": 229,
      "¿": 230,
      "Â": 231,
      "Ã": 232,
      "Ä": 233,
      "Å": 234,
      "Æ": 235,
      "Ç": 236,
      "È": 237,
      "É": 238,
      "Ê": 239,
      "Ë": 240,
      "Ì": 241,
      "Í": 242,
      "Î": 243,
      "Ï": 244,
      "Ð": 245,
      "Ñ": 246,
      "Ò": 247,
      "Ó": 248,
      "Ô": 249,
      "Õ": 250,
      "Ö": 251,
      "×": 252,
      "Ø": 253,
      "Ù": 254,
      "Ú": 255,
      "Û": 256,
      "Ü": 257,
      "Ý": 258,
      "Þ": 259,
      "ß": 260,
      "à": 261,
      "á": 262,
      "â": 263,
      "ã": 264,
      "ä": 265,
      "å": 266,
      "æ": 267,
      "ç": 268,
      "è": 269,
      "é": 270,
      "ê": 271,
      "ë": 272,
      "ì": 273,
      "í": 274,
      "î": 275,
      "ï": 276,
      "ð": 277,
      "ó": 278,
      "ô": 279,
      "Ġ": 280,
      "Ģ": 281,
      "ģ": 282,
      "Ĥ": 283,
      "ĥ": 284,
      "Ħ": 285,
      "ħ": 286,
      "Ĩ": 287,
      "ĩ": 288,
      "Ī": 289,
      "ī": 290,
      "Ĭ": 291,
      "ĭ": 292,
      "Į": 293,
      "į": 294,
      "İ": 295,
      "ı": 296,
      "Ĳ": 297,
      "ĳ": 298,
      "Ĵ": 299,
      "ĵ": 300,
      "Ķ": 301,
      "ķ": 302,
      "ĸ": 303,
      "Ĺ": 304,
      "ĺ": 305,
      "Ļ": 306,
      "ļ": 307,
      "Ľ": 308,
      "ľ": 309,
      "Ŀ": 310,
      "ŀ": 311,
      "Ł": 312,
      "ł": 313,
      "Ń": 314,
      "er": 315,
      "en": 316,
      "Ġs": 317,
      "et": 318,
      "Ã¥": 319,
      "Ġf": 320,
      "in": 321,
      "or": 322,
      "an": 323,
      "Ġo": 324,
      "Ġd": 325,
      "el": 326,
      "Ġm": 327,
      "ar": 328,
      "Ġt": 329,
      "il": 330,
      "Ġa": 331,
      "Ã¸": 332,
      "Ġi": 333,
      "st": 334,
      "Ġh": 335,
      "Ġv": 336,
      "Ġb": 337,
      "om": 338,
      "re": 339,
      "Ġk": 340,
      "Ġp": 341,
      "Ġog": 342,
      "ing": 343,
      "ed": 344,
      "Ġfor": 345,
      "li": 346,
      "le": 347,
      "te": 348,
      "on": 349,
      "sk": 350,
      "Ġtil": 351,
      "Ġg": 352,
      "al": 353,
      "Ġn": 354,
      "Ġav": 355,
      "Ġer": 356,
      "ra": 357,
      "un": 358,
      "kk": 359,
      "at": 360,
      "Ġen": 361,
      "Ġdet": 362,
      "ĠÃ¥": 363,
      "id": 364,
      "es": 365,
      "ter": 366,
      "Ġsom": 367,
      "ĠpÃ¥": 368,
      "ut": 369,
      "eg": 370,
      "ig": 371,
      "de": 372,
      "Ġl": 373,
      "ĠD": 374,
      "ĠS": 375,
      "is": 376,
      "ene": 377,
      "kt": 378,
      "Ã¸r": 379,
      "Ġmed": 380,
      "Ġst": 381,
      "ag": 382,
      "Ġat": 383,
      "pp": 384,
      "ver": 385,
      "and": 386,
      "as": 387,
      "ler": 388,
      "ol": 389,
      "Ġin": 390,
      "Ã¦": 391,
      "Ġsk": 392,
      "ne": 393,
      "am": 394,
      "Ġ1": 395,
      "ri": 396,
      "Ġhar": 397,
      "Ġut": 398,
      "se": 399,
      "lig": 400,
      "ning": 401,
      "Ġde": 402,
      "Ġom": 403,
      "it": 404,
      "der": 405,
      "Ġet": 406,
      "jon": 407,
      "ĠH": 408,
      "ent": 409,
      "ro": 410,
      "kke": 411,
      "Ã¥r": 412,
      "ĠF": 413,
      "Ġ2": 414,
      "ak": 415,
      "Ġden": 416,
      "ste": 417,
      "ĠM": 418,
      "Ġre": 419,
      "ang": 420,
      "ĠN": 421,
      "ens": 422,
      "ĠA": 423,
      "ĠB": 424,
      "Ã¦r": 425,
      "ru": 426,
      "ur": 427,
      "Ġikke": 428,
      "ĠDet": 429,
      "ke": 430,
      "Ġfra": 431,
      "Ġopp": 432,
      "ĠT": 433,
      "ĠI": 434,
      "Ġj": 435,
      "ere": 436,
      "ett": 437,
      "ĠE": 438,
      "for": 439,
      "Ġe": 440,
      "ĠK": 441,
      "ot": 442,
      "isk": 443,
      "Ġgj": 444,
      "Ġr": 445,
      "Ġvi": 446,
      "ks": 447,
      "Ġinn": 448,
      "omm": 449,
      "je": 450,
      "ĠV": 451,
      "00": 452,
      "Ġvar": 453,
      "be": 454,
      "gg": 455,
      "ul": 456,
      "us": 457,
      "Ġkan": 458,
      "Ġ(": 459,
      "ad": 460,
      "tt": 461,
      "ende": 462,
      "Ġbe": 463,
      "ik": 464,
      "Ġan": 465,
      "iv": 466,
      "Ġsam": 467,
      "Ġal": 468,
      "sen": 469,
      "ord": 470,
      "het": 471,
      "Ġvil": 472,
      "ĠP": 473,
      "ap": 474,
      "ser": 475,
      "ĠO": 476,
      "ĠL": 477,
      "ĠR": 478,
      "eller": 479,
      "Ġmen": 480,
      "att": 481,
      "ge": 482,
      "ell": 483,
      "Ġ-": 484,
      "unn": 485,
      "Ġsp": 486,
      "ok": 487,
      "ĠmÃ¥": 488,
      "ikk": 489,
      "ov": 490,
      "asjon": 491,
      "sp": 492,
      "art": 493,
      "ling": 494,
      "mm": 495,
      "od": 496,
      "ft": 497,
      "Ġved": 498,
      "beid": 499,
      "Ġbli": 500,
      "ist": 501,
      "del": 502,
      "Ġover": 503,
      "ier": 504,
      "sl": 505,
      "ort": 506,
      "av": 507,
      "ĠJ": 508,
      "Ġskal": 509,
      "ĠG": 510,
      "Ġkomm": 511,
      "ĠÂ": 512,
      "Ġli": 513,
      "Ã¸y": 514,
      "est": 515,
      "sÃ¥": 516,
      "arbeid": 517,
      "rÃ¥": 518,
      "ss": 519,
      "Ġpro": 520,
      "ud": 521,
      "yn": 522,
      "enn": 523,
      "Ġhv": 524,
      "Ġun": 525,
      "ĠÃ¥r": 526,
      "ir": 527,
      "eng": 528,
      "âĢ": 529,
      "Ã¦re": 530,
      "ann": 531,
      "Ġeller": 532,
      "Ġseg": 533,
      "old": 534,
      "jÃ¸": 535,
      "elt": 536,
      "yr": 537,
      "Ġkon": 538,
      "Ġder": 539,
      "og": 540,
      "Ã¸k": 541,
      "ĠogsÃ¥": 542,
      "legg": 543,
      "ĠsÃ¥": 544,
      "Ġu": 545,
      "else": 546,
      "var": 547,
      "elig": 548,
      "Ġble": 549,
      "Ġetter": 550,
      "ingen": 551,
      "Ġhan": 552,
      "inn": 553,
      "ĠSt": 554,
      "Ġ19": 555,
      "01": 556,
      "ert": 557,
      "ĠfÃ¸r": 558,
      "sm": 559,
      "em": 560,
      "Ġ3": 561,
      "ff": 562,
      "all": 563,
      "eld": 564,
      "Ġny": 565,
      "Ġno": 566,
      "jer": 567,
      "itt": 568,
      "ant": 569,
      "ĠâĢ": 570,
      "skap": 571,
      "ve": 572,
      "os": 573,
      "Ġbar": 574,
      "Ġdu": 575,
      "Ã¸n": 576,
      "ĠU": 577,
      "iske": 578,
      "Ġand": 579,
      "Ġjeg": 580,
      "lit": 581,
      "ĠC": 582,
      "ske": 583,
      "ĠvÃ¦re": 584,
      "ale": 585,
      "Ġse": 586,
      "Ġkl": 587,
      "Ġdette": 588,
      "Ġunder": 589,
      "ĠÂ«": 590,
      "Ġreg": 591,
      "end": 592,
      "Ġtid": 593,
      "Â»": 594,
      "ers": 595,
      "um": 596,
      "im": 597,
      "Ġkr": 598,
      "ruk": 599,
      "und": 600,
      "..": 601,
      "net": 602,
      "hold": 603,
      "Ġmot": 604,
      "ĠfÃ¥": 605,
      "Ġle": 606,
      "Ã¸re": 607,
      "Ġarbeid": 608,
      "ast": 609,
      "ĠÃ": 610,
      "ige": 611,
      "Ã¸l": 612,
      "org": 613,
      "Ġdag": 614,
      "yl": 615,
      "Ġgr": 616,
      "ĠFor": 617,
      "vis": 618,
      "alt": 619,
      "ygg": 620,
      "ab": 621,
      "Ġtr": 622,
      "Ġ4": 623,
      "ele": 624,
      "Ġblir": 625,
      "Ġ201": 626,
      "ek": 627,
      "ber": 628,
      "ets": 629,
      "ings": 630,
      "ly": 631,
      "lige": 632,
      "tid": 633,
      "Ġmin": 634,
      "men": 635,
      "alg": 636,
      "Ã¦rt": 637,
      "Ġpl": 638,
      "Ġandre": 639,
      "erd": 640,
      "elle": 641,
      "ark": 642,
      "Ġc": 643,
      "Ġ5": 644,
      "he": 645,
      "Ġsin": 646,
      "fÃ¸r": 647,
      "Ġmer": 648,
      "oner": 649,
      "Ġsli": 650,
      "Ġto": 651,
      "Ġkun": 652,
      "ennom": 653,
      "akt": 654,
      "red": 655,
      "ost": 656,
      "mer": 657,
      "Ġkommun": 658,
      "tak": 659,
      "ass": 660,
      "tte": 661,
      "ans": 662,
      "vik": 663,
      "ger": 664,
      "ring": 665,
      "Ġgod": 666,
      "iser": 667,
      "Ġkom": 668,
      "lag": 669,
      "gj": 670,
      "Ġstor": 671,
      "rem": 672,
      "ill": 673,
      "Ġdenne": 674,
      "Ã¥l": 675,
      "adde": 676,
      "ĠDe": 677,
      "Ġha": 678,
      "Ġsier": 679,
      "ob": 680,
      "ĠVi": 681,
      "set": 682,
      "Ġkv": 683,
      "Ġgjennom": 684,
      "Ġbl": 685,
      "lere": 686,
      "Ġsel": 687,
      "Ġalle": 688,
      "ange": 689,
      "per": 690,
      "Ġenn": 691,
      "ĠNor": 692,
      "Ġhadde": 693,
      "ĠIn": 694,
      "ie": 695,
      "ningen": 696,
      "res": 697,
      "Ġdel": 698,
      "dag": 699,
      "Ġman": 700,
      "Ġpr": 701,
      "gi": 702,
      "Ġbet": 703,
      "ede": 704,
      "olit": 705,
      "tem": 706,
      "ĠEn": 707,
      "Ġra": 708,
      "Ġland": 709,
      "Ã¸d": 710,
      "ret": 711,
      "ĠDen": 712,
      "Ġsi": 713,
      "na": 714,
      "ire": 715,
      "du": 716,
      "det": 717,
      "ighet": 718,
      "eder": 719,
      "Ġeg": 720,
      "ninger": 721,
      "stil": 722,
      "land": 723,
      "ien": 724,
      "ult": 725,
      "hand": 726,
      "Ġgrunn": 727,
      "Ġsy": 728,
      "Ġbruk": 729,
      "me": 730,
      "ry": 731,
      "Ġ6": 732,
      "ĠnÃ¥": 733,
      "ksjon": 734,
      "Ġnor": 735,
      "ess": 736,
      "are": 737,
      "Ġpros": 738,
      "Ġda": 739,
      "ellom": 740,
      "ĠnÃ¥r": 741,
      "kl": 742,
      "Ġlag": 743,
      "rift": 744,
      "gang": 745,
      "ĠâĢĵ": 746,
      "ten": 747,
      "svar": 748,
      "par": 749,
      "opp": 750,
      "Ġfort": 751,
      "Ġsl": 752,
      "isse": 753,
      "ater": 754,
      "jel": 755,
      "Ġmellom": 756,
      "ket": 757,
      "ĠJeg": 758,
      "Ġnoe": 759,
      "pe": 760,
      "ĠDette": 761,
      "ster": 762,
      "ic": 763,
      "ĠvÃ¦rt": 764,
      "Ġ200": 765,
      "ktig": 766,
      "ker": 767,
      "ĠMen": 768,
      "ion": 769,
      "ĠnÃ¦r": 770,
      "Ġher": 771,
      ").": 772,
      "Ġkj": 773,
      "els": 774,
      "Ġsid": 775,
      "ner": 776,
      "Ġmange": 777,
      "inger": 778,
      "Ġmu": 779,
      "slag": 780,
      "entet": 781,
      "Ġslik": 782,
      "Ġmil": 783,
      "ekt": 784,
      "ia": 785,
      "pet": 786,
      "ĠAn": 787,
      "Ġhvor": 788,
      "ev": 789,
      "Ġnoen": 790,
      "Ġkunne": 791,
      "gen": 792,
      "Ġ7": 793,
      "sker": 794,
      "tter": 795,
      "Ġby": 796,
      "atte": 797,
      "utt": 798,
      "form": 799,
      "Ġtre": 800,
      "riv": 801,
      "itet": 802,
      "dre": 803,
      "elsen": 804,
      "ĠÃĺ": 805,
      "000": 806,
      "Ġfrem": 807,
      "Ġuten": 808,
      "Ġkont": 809,
      "Ġfin": 810,
      "Ġfram": 811,
      "Ġinter": 812,
      "Ġta": 813,
      "Ġtilb": 814,
      "ĠfÃ¥r": 815,
      "Ġrett": 816,
      "sten": 817,
      "Ġned": 818,
      "ĠbÃ¥": 819,
      "Ġbeg": 820,
      "ull": 821,
      "ĠSk": 822,
      "nings": 823,
      "ĠÃ¸": 824,
      "ĠÃ¸k": 825,
      "enter": 826,
      "Ġsak": 827,
      "ĠlÃ¸": 828,
      "rett": 829,
      "mp": 830,
      "Ġstat": 831,
      "ĠgÃ¥r": 832,
      "Ġbare": 833,
      "Ġ8": 834,
      "ub": 835,
      "Ġsammen": 836,
      "Ġforsk": 837,
      "jene": 838,
      "Ġnye": 839,
      "Ġser": 840,
      "Ġbil": 841,
      "ĠHan": 842,
      "ĠW": 843,
      "mid": 844,
      "vet": 845,
      "ĠfÃ¸l": 846,
      "Ġflere": 847,
      "Ġvir": 848,
      "ĠhÃ¸y": 849,
      "oll": 850,
      "ĠstÃ¸r": 851,
      "ane": 852,
      "Ġek": 853,
      "Ġsv": 854,
      "ch": 855,
      "Ġbeste": 856,
      "pl": 857,
      "Ġgang": 858,
      "ĠâĢĶ": 859,
      "Ġvid": 860,
      "ĠAr": 861,
      "lem": 862,
      "Ġgra": 863,
      "elser": 864,
      "Ġpolit": 865,
      "mmer": 866,
      "Ġmulig": 867,
      "ĠfÃ¸rste": 868,
      "Ġmeg": 869,
      "ye": 870,
      "tes": 871,
      "Ġkra": 872,
      "ille": 873,
      "Ġbed": 874,
      "Ġlig": 875,
      "iet": 876,
      "Ġlang": 877,
      "partem": 878,
      "Ġhver": 879,
      "olk": 880,
      "erne": 881,
      "eb": 882,
      "Ġvel": 883,
      "Ġforb": 884,
      "sb": 885,
      "kter": 886,
      "Ġverd": 887,
      "ĠNorge": 888,
      "urder": 889,
      "Ġpers": 890,
      "este": 891,
      "rupp": 892,
      "Ġselv": 893,
      "ĠAl": 894,
      "Ġdisse": 895,
      "isjon": 896,
      "''": 897,
      "si": 898,
      "Ġof": 899,
      "Ġlov": 900,
      "Ġ9": 901,
      "ĠbÃ¥de": 902,
      "Ġord": 903,
      "Ġein": 904,
      "Ġend": 905,
      "nes": 906,
      "enger": 907,
      "ont": 908,
      "if": 909,
      "nd": 910,
      "op": 911,
      "Ġenk": 912,
      "ug": 913,
      "Ġ10": 914,
      "jem": 915,
      "Ġber": 916,
      "Ġhun": 917,
      "Ġfyl": 918,
      "ĠkjÃ¸": 919,
      "Ġ0": 920,
      "Ġakt": 921,
      "som": 922,
      "Ġalt": 923,
      "ny": 924,
      "ken": 925,
      "Ġkroner": 926,
      "ĠÂ§": 927,
      "ard": 928,
      "ode": 929,
      "rÃ¸": 930,
      "ativ": 931,
      "min": 932,
      "Ġvan": 933,
      "kker": 934,
      "ĠgÃ¥": 935,
      "organ": 936,
      "Ġskul": 937,
      "valg": 938,
      "Ġdem": 939,
      "Ġutvik": 940,
      "Ġper": 941,
      "Ġsm": 942,
      "Ġve": 943,
      "pro": 944,
      "atur": 945,
      "let": 946,
      "Ġhen": 947,
      "ine": 948,
      "tal": 949,
      "gd": 950,
      "gr": 951,
      "ole": 952,
      "Ġ\"": 953,
      "Ġled": 954,
      "rag": 955,
      "over": 956,
      "ĠOg": 957,
      "Ġforhold": 958,
      "Ġgodt": 959,
      "inner": 960,
      "handling": 961,
      "unkt": 962,
      "ĠbÃ¸r": 963,
      "elder": 964,
      "Ġoss": 965,
      "la": 966,
      "Ġplan": 967,
      "Ġform": 968,
      "gra": 969,
      "ran": 970,
      "ali": 971,
      "satt": 972,
      "ligere": 973,
      "fter": 974,
      "Ġver": 975,
      "rist": 976,
      "ener": 977,
      "Ġty": 978,
      "partementet": 979,
      "smÃ¥l": 980,
      "Ġkommer": 981,
      "di": 982,
      "Ġviktig": 983,
      "Ġsyn": 984,
      "ĠgjÃ¸re": 985,
      "Ġbru": 986,
      "ust": 987,
      "Ġvurder": 988,
      "Ġar": 989,
      "Ġmye": 990,
      "Ġstore": 991,
      "Ġannet": 992,
      "Ġ20": 993,
      "ĠÃ¸n": 994,
      "Ġnok": 995,
      "sjon": 996,
      "ĠomrÃ¥": 997,
      "Ġlike": 998,
      "Ġlegg": 999,
      "ĠmÃ¸": 1000,
      "reg": 1001,
      "Ġdei": 1002,
      "sÃ¸k": 1003,
      "rer": 1004,
      "stem": 1005,
      "Ġgi": 1006,
      "oved": 1007,
      "ksom": 1008,
      "ister": 1009,
      "nen": 1010,
      "sel": 1011,
      "eter": 1012,
      "like": 1013,
      "ĠUt": 1014,
      "kj": 1015,
      "Ġnett": 1016,
      "ite": 1017,
      "ĠvÃ¥r": 1018,
      "pen": 1019,
      "Ġri": 1020,
      "yd": 1021,
      "Ġbygg": 1022,
      "Ġsamme": 1023,
      "Ġhele": 1024,
      "onom": 1025,
      "Ġei": 1026,
      "Ġbr": 1027,
      "syn": 1028,
      "va": 1029,
      "jekt": 1030,
      "tall": 1031,
      "Ġfikk": 1032,
      "Ã¸rsmÃ¥l": 1033,
      "etter": 1034,
      "vil": 1035,
      "kes": 1036,
      "heten": 1037,
      "slo": 1038,
      "hus": 1039,
      "Ġgjelder": 1040,
      "ĠTr": 1041,
      "Ġ18": 1042,
      "oms": 1043,
      "Ġred": 1044,
      "sj": 1045,
      "Ġad": 1046,
      "hol": 1047,
      "pr": 1048,
      "fÃ¸re": 1049,
      "Ġsiste": 1050,
      "Ġ15": 1051,
      "ven": 1052,
      "ind": 1053,
      "nad": 1054,
      "Ġskulle": 1055,
      "ĠNord": 1056,
      "mme": 1057,
      "stilling": 1058,
      "Ġ199": 1059,
      "Ġprosent": 1060,
      "kket": 1061,
      "Ġinnen": 1062,
      "ette": 1063,
      "rÃ¥d": 1064,
      "Ġsine": 1065,
      "esl": 1066,
      "Ġfly": 1067,
      "ĠTil": 1068,
      "ys": 1069,
      "Ġhva": 1070,
      "ip": 1071,
      "fÃ¸l": 1072,
      "Ġhelt": 1073,
      "stre": 1074,
      "ac": 1075,
      "Ġvis": 1076,
      "Ġgir": 1077,
      "Ġspes": 1078,
      "ial": 1079,
      "Ġtra": 1080,
      "Ġ12": 1081,
      "stand": 1082,
      "ordan": 1083,
      "vend": 1084,
      "Ġinne": 1085,
      "Ġsiden": 1086,
      "olog": 1087,
      "Ġblant": 1088,
      "ikker": 1089,
      "asser": 1090,
      "ĠOslo": 1091,
      "),": 1092,
      "Ġtillegg": 1093,
      "Ġviser": 1094,
      "ond": 1095,
      "Ġstyr": 1096,
      "ĠPÃ¥": 1097,
      "Ġdeg": 1098,
      "Ġlitt": 1099,
      "Ġsa": 1100,
      "Ġ11": 1101,
      "bygg": 1102,
      "rev": 1103,
      "ĠSp": 1104,
      "anse": 1105,
      "Ġma": 1106,
      "usjon": 1107,
      "ns": 1108,
      "Ġhel": 1109,
      "Ġfast": 1110,
      "styr": 1111,
      "ester": 1112,
      "stad": 1113,
      "Ġeks": 1114,
      "Ġmener": 1115,
      "rat": 1116,
      "iver": 1117,
      "ĠÃħ": 1118,
      "ake": 1119,
      "vir": 1120,
      "Ġhand": 1121,
      "gÃ¥": 1122,
      "Ġblitt": 1123,
      "kkje": 1124,
      "led": 1125,
      "Ġnorske": 1126,
      "ttet": 1127,
      "ĠUn": 1128,
      "sy": 1129,
      "sf": 1130,
      "ma": 1131,
      "Ġla": 1132,
      "Ġoff": 1133,
      "pt": 1134,
      "Ġvidere": 1135,
      "jÃ¸r": 1136,
      "Ġ000": 1137,
      "Ġlok": 1138,
      "mann": 1139,
      "Ġtilf": 1140,
      "Ġall": 1141,
      "ER": 1142,
      "Ġmid": 1143,
      "Ġsitt": 1144,
      "Ġfri": 1145,
      "201": 1146,
      "asjonen": 1147,
      "ĠmÃ¥l": 1148,
      "Ġthe": 1149,
      "Ġsent": 1150,
      "hov": 1151,
      "midler": 1152,
      "Ġw": 1153,
      "ĠsÃ¦r": 1154,
      "Ġsj": 1155,
      "Ġkap": 1156,
      "Ġperson": 1157,
      "ensjon": 1158,
      "Ġev": 1159,
      "ate": 1160,
      "ktor": 1161,
      "ĠSam": 1162,
      "alen": 1163,
      "Ġorgan": 1164,
      "gjÃ¸r": 1165,
      "Ġhoved": 1166,
      "Ġnr": 1167,
      "ÂŃ": 1168,
      "elen": 1169,
      "by": 1170,
      "Ġsen": 1171,
      "Ġstil": 1172,
      "Ġikkje": 1173,
      "jell": 1174,
      "Ġrund": 1175,
      "ĠHer": 1176,
      "Ġingen": 1177,
      "Ġigj": 1178,
      "ĠJo": 1179,
      "Ġhjel": 1180,
      "Ġdelt": 1181,
      "entlig": 1182,
      "Ġderfor": 1183,
      "Ġjob": 1184,
      "ĠgjÃ¸r": 1185,
      "Ġsik": 1186,
      "ĠBer": 1187,
      "Ġbo": 1188,
      "Ġy": 1189,
      "Ġfle": 1190,
      "ĠfÃ¥tt": 1191,
      "ultur": 1192,
      "Ġstud": 1193,
      "delse": 1194,
      "sn": 1195,
      "atter": 1196,
      "ĠspÃ¸rsmÃ¥l": 1197,
      "kken": 1198,
      "Ġville": 1199,
      "ide": 1200,
      "ĠnÃ¸d": 1201,
      "Ġtiltak": 1202,
      "Ġbarn": 1203,
      "Ġutvikling": 1204,
      "Ġfag": 1205,
      "heng": 1206,
      "eldig": 1207,
      "ommun": 1208,
      "rakt": 1209,
      "iner": 1210,
      "Ġvalg": 1211,
      "Ġbak": 1212,
      "Ġele": 1213,
      "ive": 1214,
      "uler": 1215,
      "kte": 1216,
      "vel": 1217,
      "lÃ¸": 1218,
      "ente": 1219,
      "Ġsamt": 1220,
      "asjoner": 1221,
      "Ġmilli": 1222,
      "Ġres": 1223,
      "oven": 1224,
      "fÃ¸rt": 1225,
      "Ġter": 1226,
      "stit": 1227,
      "ĠstÃ¸rre": 1228,
      "stÃ¥": 1229,
      "Ġten": 1230,
      "ĠhÃ¥": 1231,
      "Ġigjen": 1232,
      "Ġtro": 1233,
      "Ġtidligere": 1234,
      "Ġprodu": 1235,
      "les": 1236,
      "alit": 1237,
      "Ġtek": 1238,
      "delig": 1239,
      "Ã¥d": 1240,
      "Ġsit": 1241,
      "ĠfrÃ¥": 1242,
      "Ġtar": 1243,
      "Ġfull": 1244,
      "edet": 1245,
      "ĠDer": 1246,
      "Ġforslag": 1247,
      "Ġhe": 1248,
      "ĠEtter": 1249,
      "Ġgam": 1250,
      "ong": 1251,
      "skapet": 1252,
      "elige": 1253,
      "funn": 1254,
      "Ġster": 1255,
      "sak": 1256,
      "ringer": 1257,
      "Ġpart": 1258,
      "dan": 1259,
      "Ġsn": 1260,
      "ĠÃ¸konom": 1261,
      "Ġnatur": 1262,
      "ses": 1263,
      "ynd": 1264,
      "Ġfl": 1265,
      "....": 1266,
      "Ġsett": 1267,
      "ĠMed": 1268,
      "Ġrundt": 1269,
      "verk": 1270,
      "Ġmest": 1271,
      "heter": 1272,
      "ib": 1273,
      "Ġsamarbeid": 1274,
      "leg": 1275,
      "Ġinform": 1276,
      "Ġulike": 1277,
      "med": 1278,
      "Ġste": 1279,
      "ald": 1280,
      "elte": 1281,
      "rit": 1282,
      "likt": 1283,
      "Ġmens": 1284,
      "Ġmark": 1285,
      "ĠDa": 1286,
      "Ġdes": 1287,
      "Ġstra": 1288,
      "Ġ13": 1289,
      "Â».": 1290,
      "Ġmindre": 1291,
      "Ġ16": 1292,
      "Ġ17": 1293,
      "Ġjo": 1294,
      "gift": 1295,
      "Ġ14": 1296,
      "Ġme": 1297,
      "Ġtatt": 1298,
      "olen": 1299,
      "sv": 1300,
      "Ġtjene": 1301,
      "bruk": 1302,
      "Ġarbeids": 1303,
      "ĠsÃ¸k": 1304,
      "ĠvÃ¥": 1305,
      "aler": 1306,
      "Ġte": 1307,
      "Ġegen": 1308,
      "ĠstÃ¸": 1309,
      "Ġnytt": 1310,
      "Ġnorsk": 1311,
      "ino": 1312,
      "atet": 1313,
      "Ġhvordan": 1314,
      "ĠRe": 1315,
      "19": 1316,
      "Ġbid": 1317,
      "Ġpar": 1318,
      "ore": 1319,
      "ĠhÃ¸": 1320,
      "ĠStat": 1321,
      "au": 1322,
      "Ġbedre": 1323,
      "til": 1324,
      "far": 1325,
      "semp": 1326,
      "ĠNÃ¥r": 1327,
      "Ġomf": 1328,
      "lik": 1329,
      "ise": 1330,
      "tidig": 1331,
      "part": 1332,
      "Ġfar": 1333,
      "ĠVed": 1334,
      "kur": 1335,
      "ĠstÃ¥r": 1336,
      "Ġpris": 1337,
      "enes": 1338,
      "Ġfolk": 1339,
      "no": 1340,
      "Ġgjort": 1341,
      "Ġligger": 1342,
      "Ġfe": 1343,
      "sert": 1344,
      "Ã¸rer": 1345,
      "Ġly": 1346,
      "Ġveg": 1347,
      "Ġbehov": 1348,
      "Ã¦rer": 1349,
      "Ġkommune": 1350,
      "Ġprob": 1351,
      "gende": 1352,
      "Ġbesk": 1353,
      "app": 1354,
      "asse": 1355,
      "spl": 1356,
      "fer": 1357,
      "udd": 1358,
      "Ġ.": 1359,
      "amp": 1360,
      "vor": 1361,
      "ars": 1362,
      "Ġansvar": 1363,
      "Ġhos": 1364,
      "nt": 1365,
      "uro": 1366,
      "20": 1367,
      "Ã©": 1368,
      "ivÃ¥": 1369,
      "midlertid": 1370,
      "amil": 1371,
      "ĠPro": 1372,
      "Ġne": 1373,
      "omrÃ¥": 1374,
      "Ġmann": 1375,
      "Ġbarne": 1376,
      "Ġel": 1377,
      "ande": 1378,
      "dd": 1379,
      "ank": 1380,
      "Ġkomme": 1381,
      "Ġunn": 1382,
      "drag": 1383,
      "Ġannen": 1384,
      "komm": 1385,
      "...": 1386,
      "Ġhus": 1387,
      "Ġskole": 1388,
      "roll": 1389,
      "mel": 1390,
      "berg": 1391,
      "sett": 1392,
      "ĠnÃ¸dvend": 1393,
      "Ġmenne": 1394,
      "agt": 1395,
      "Ġdat": 1396,
      "Ġkost": 1397,
      "den": 1398,
      "Ġnord": 1399,
      "tere": 1400,
      "kning": 1401,
      "ĠAv": 1402,
      "anske": 1403,
      "EN": 1404,
      "tern": 1405,
      "ffekt": 1406,
      "udsj": 1407,
      "Ġfun": 1408,
      "rik": 1409,
      "tekt": 1410,
      "Ġsvar": 1411,
      "ĠÃ¸nsker": 1412,
      "Ġkor": 1413,
      "rig": 1414,
      "Ġeit": 1415,
      "anger": 1416,
      "Ġrep": 1417,
      "jord": 1418,
      "Ġru": 1419,
      "iller": 1420,
      "tatt": 1421,
      "iden": 1422,
      "kv": 1423,
      "Ġgl": 1424,
      "ĠlÃ¥": 1425,
      "Ġvann": 1426,
      "Ġeksemp": 1427,
      "bet": 1428,
      "Ġhvil": 1429,
      "ĠReg": 1430,
      "Ġkrav": 1431,
      "Ġro": 1432,
      "under": 1433,
      "Ġhelse": 1434,
      "Ġstort": 1435,
      "ĠOm": 1436,
      "ikken": 1437,
      "ĠEt": 1438,
      "Ġforv": 1439,
      "satte": 1440,
      "Ã¸nn": 1441,
      "Ã¦ring": 1442,
      "Ġtilbake": 1443,
      "Ġinv": 1444,
      "bo": 1445,
      "Ġlever": 1446,
      "ĠMar": 1447,
      "Ġopply": 1448,
      "Ġpre": 1449,
      "Ġaller": 1450,
      "grunn": 1451,
      "mark": 1452,
      "Ġimidlertid": 1453,
      "sikt": 1454,
      "Ġspesi": 1455,
      "stra": 1456,
      "Ġforesl": 1457,
      "oen": 1458,
      "Ġhens": 1459,
      "Ġdire": 1460,
      "Ġklar": 1461,
      "ĠmiljÃ¸": 1462,
      "Ġ30": 1463,
      "Ġgrad": 1464,
      "Ġlangt": 1465,
      "assen": 1466,
      "ember": 1467,
      "mmet": 1468,
      "tert": 1469,
      "ian": 1470,
      "sh": 1471,
      "yndighet": 1472,
      "Ġkraft": 1473,
      "ĠÃĺog": 1474,
      "ĠInn": 1475,
      "Ġdrift": 1476,
      "Ġfordi": 1477,
      "Ġ198": 1478,
      "tale": 1479,
      "Ġhatt": 1480,
      "ĠCh": 1481,
      "Ġtur": 1482,
      "ksomhet": 1483,
      "grupp": 1484,
      "Ġgode": 1485,
      "ĠSe": 1486,
      "jef": 1487,
      "Ġbes": 1488,
      "spro": 1489,
      "ilt": 1490,
      "Ãĺ": 1491,
      "Ġart": 1492,
      "sfor": 1493,
      "Ġvansk": 1494,
      "Ġsu": 1495,
      "Ġvin": 1496,
      "jen": 1497,
      "Ġkultur": 1498,
      "Ġgrupp": 1499,
      "sdag": 1500,
      "ivitet": 1501,
      "Ġintern": 1502,
      "vid": 1503,
      "udsjett": 1504,
      "ĠHar": 1505,
      "ta": 1506,
      "ĠJoh": 1507,
      "Ġgener": 1508,
      "fÃ¸ring": 1509,
      "Ġgikk": 1510,
      "spunkt": 1511,
      "ade": 1512,
      "alitet": 1513,
      "raf": 1514,
      "inget": 1515,
      "ori": 1516,
      "Ġ25": 1517,
      "Ġliv": 1518,
      "skje": 1519,
      "Ġenkelte": 1520,
      "enge": 1521,
      "river": 1522,
      "stru": 1523,
      "sam": 1524,
      "ĠsjÃ¸": 1525,
      "ĠmÃ¥tte": 1526,
      "Ġledd": 1527,
      "elles": 1528,
      "Ġinformasjon": 1529,
      "Ġhal": 1530,
      "utter": 1531,
      "rep": 1532,
      "ĠOpp": 1533,
      "Ġgitt": 1534,
      "Ġskap": 1535,
      "ĠmÃ¥te": 1536,
      "10": 1537,
      "dal": 1538,
      "Ġju": 1539,
      "ga": 1540,
      "Ġsamfunn": 1541,
      "Ġpres": 1542,
      "Ġhold": 1543,
      "ĠsvÃ¦rt": 1544,
      "Ġveldig": 1545,
      "valget": 1546,
      "bru": 1547,
      "oder": 1548,
      "ford": 1549,
      "ct": 1550,
      "ĠfÃ¸rst": 1551,
      "ats": 1552,
      "Ġhol": 1553,
      "Ġret": 1554,
      "asino": 1555,
      "ow": 1556,
      "ĠEl": 1557,
      "ĠÃ¥p": 1558,
      "Ġtim": 1559,
      "vÃ¦r": 1560,
      "uft": 1561,
      "Ġbehandling": 1562,
      "elÃ¸": 1563,
      "Ã¥tt": 1564,
      "off": 1565,
      "ĠArbeid": 1566,
      "Ġorganis": 1567,
      "ĠEr": 1568,
      "ĠStort": 1569,
      "Ġfisk": 1570,
      "Ġfinn": 1571,
      "kom": 1572,
      "tet": 1573,
      "ĠsÃ¸": 1574,
      "Ġsyke": 1575,
      "Ġhvis": 1576,
      "ay": 1577,
      "Ġhje": 1578,
      "Ġsaken": 1579,
      "oden": 1580,
      "Ġresult": 1581,
      "Ġ197": 1582,
      "try": 1583,
      "Ġprosjekt": 1584,
      "Ġnev": 1585,
      "Ġkny": 1586,
      "ris": 1587,
      "Ġting": 1588,
      "Ġbest": 1589,
      "avn": 1590,
      "ĠmÃ¥n": 1591,
      "Ġca": 1592,
      "Ġfakt": 1593,
      "ikkerhet": 1594,
      "bud": 1595,
      "lev": 1596,
      "Ġbegyn": 1597,
      "skudd": 1598,
      "inga": 1599,
      "Ġarbeidet": 1600,
      "orges": 1601,
      "ĠprÃ¸": 1602,
      "Ġkre": 1603,
      "Ġsos": 1604,
      "otell": 1605,
      "stri": 1606,
      "fÃ¸rer": 1607,
      "Ġfol": 1608,
      "Ġdi": 1609,
      "jor": 1610,
      "Ġon": 1611,
      "istor": 1612,
      "ĠdÃ¸": 1613,
      "aff": 1614,
      "Ġforet": 1615,
      "IN": 1616,
      "Ġforut": 1617,
      "Ġeksempel": 1618,
      "Ġhans": 1619,
      "Ġredus": 1620,
      "Ġmat": 1621,
      "bar": 1622,
      "ĠSom": 1623,
      "ce": 1624,
      "ĠsmÃ¥": 1625,
      "Ġside": 1626,
      "Ġeffekt": 1627,
      "Ġnasjon": 1628,
      "mt": 1629,
      "Ġbra": 1630,
      "Ġjord": 1631,
      "Ġfil": 1632,
      "ĠDenne": 1633,
      "uder": 1634,
      "istri": 1635,
      "Ġben": 1636,
      "Ġfordel": 1637,
      "Ġofte": 1638,
      "30": 1639,
      "yre": 1640,
      "raft": 1641,
      "okum": 1642,
      "ferd": 1643,
      "Ġferd": 1644,
      "Ġfors": 1645,
      "Ġforbin": 1646,
      "Ġfamil": 1647,
      "ering": 1648,
      "ave": 1649,
      "anen": 1650,
      "ĠrÃ¥d": 1651,
      "urs": 1652,
      "Ġseiv": 1653,
      "ĠDu": 1654,
      "stat": 1655,
      "Ġpri": 1656,
      "Ġfinne": 1657,
      "bl": 1658,
      "tre": 1659,
      "Ġmill": 1660,
      "ĠSÃ¥": 1661,
      "OR": 1662,
      "200": 1663,
      "Ġ21": 1664,
      "Ġperi": 1665,
      "Ġlagt": 1666,
      "ĠÃ¸v": 1667,
      "ansen": 1668,
      "sninger": 1669,
      "Ġplass": 1670,
      "Ġfire": 1671,
      "ĠfÃ¸re": 1672,
      "Ġ22": 1673,
      "lene": 1674,
      "jed": 1675,
      "Ġmang": 1676,
      "Ġsatt": 1677,
      "Ġspille": 1678,
      "ĠKrist": 1679,
      "ĠnÃ¸dvendig": 1680,
      "eldre": 1681,
      "ile": 1682,
      "ivt": 1683,
      "hag": 1684,
      "unnskap": 1685,
      "ĠNÃ¥": 1686,
      "ation": 1687,
      "Ġheller": 1688,
      "ĠLe": 1689,
      "heim": 1690,
      "ĠfÃ¸lge": 1691,
      "uni": 1692,
      "Ġang": 1693,
      "50": 1694,
      "Ġgjen": 1695,
      "iljÃ¸": 1696,
      "rid": 1697,
      "ott": 1698,
      "Ġrekke": 1699,
      "Ġhvert": 1700,
      "aks": 1701,
      "Ġlite": 1702,
      "yld": 1703,
      "ild": 1704,
      "enner": 1705,
      "ĠnÃ¦rm": 1706,
      "departementet": 1707,
      "Ġfre": 1708,
      "ĠY": 1709,
      "Ġbruker": 1710,
      "gÃ¥r": 1711,
      "Ġor": 1712,
      "ha": 1713,
      "oc": 1714,
      "lagt": 1715,
      "delser": 1716,
      "ommer": 1717,
      "Ġfem": 1718,
      "Ġvanskelig": 1719,
      "Ġetab": 1720,
      "fall": 1721,
      "Ġbolig": 1722,
      "ningene": 1723,
      "Ġbegr": 1724,
      "olle": 1725,
      "tering": 1726,
      "Ġtok": 1727,
      "ĠHun": 1728,
      "Ġrapp": 1729,
      "aker": 1730,
      "Ġkonkur": 1731,
      "Â»,": 1732,
      "Ġ:": 1733,
      "ĠGr": 1734,
      "Ġinteres": 1735,
      "lingen": 1736,
      "Ġtekn": 1737,
      "resent": 1738,
      "Ġfortsatt": 1739,
      "Ġett": 1740,
      "Ġbas": 1741,
      "Ġslike": 1742,
      "ote": 1743,
      "SA": 1744,
      "ĠNorges": 1745,
      "Ġmillioner": 1746,
      "Ġdersom": 1747,
      "Ġ/": 1748,
      "orten": 1749,
      "ĠBl": 1750,
      "Ġtror": 1751,
      "ĠvÃ¥re": 1752,
      "ĠsÃ¦rlig": 1753,
      "veg": 1754,
      "Ġhjelp": 1755,
      "Ġbruke": 1756,
      "Ġkar": 1757,
      "Ġstand": 1758,
      "Ġleder": 1759,
      "Ġpriv": 1760,
      "Ġvet": 1761,
      "minist": 1762,
      "Ġskjer": 1763,
      "Ġkort": 1764,
      "Ġ50": 1765,
      "of": 1766,
      "Ġgjeld": 1767,
      "gram": 1768,
      "Ġlandet": 1769,
      "ĠOl": 1770,
      "revet": 1771,
      "kon": 1772,
      "Ġfot": 1773,
      "Ġ''": 1774,
      "Ġpersoner": 1775,
      "ka": 1776,
      "Ġtru": 1777,
      "ĠlÃ¸pet": 1778,
      "uelle": 1779,
      "esten": 1780,
      "Ġregjer": 1781,
      "Ġforbindelse": 1782,
      "Ġdin": 1783,
      "Ġpos": 1784,
      "vern": 1785,
      "ensen": 1786,
      "Ġpa": 1787,
      "Ġungd": 1788,
      "Ġbestemm": 1789,
      "Ġfinnes": 1790,
      "Ġid": 1791,
      "oks": 1792,
      "ĠTh": 1793,
      "Ġmor": 1794,
      "Ġkanskje": 1795,
      "ben": 1796,
      "Ġregist": 1797,
      "ĠsÃ¸r": 1798,
      "Ġfleste": 1799,
      "entene": 1800,
      "Ġti": 1801,
      "Ġsitu": 1802,
      "dustri": 1803,
      "ĠBar": 1804,
      "ĠomrÃ¥det": 1805,
      "Ġevent": 1806,
      "ĠFra": 1807,
      "Ġgrunnlag": 1808,
      "get": 1809,
      "Ġhensyn": 1810,
      "Ġminst": 1811,
      "bef": 1812,
      "danning": 1813,
      "Ġbok": 1814,
      "Ġham": 1815,
      "Ġkveld": 1816,
      "Ġgamle": 1817,
      "Ġpost": 1818,
      "ening": 1819,
      "Ġstad": 1820,
      "Ġantall": 1821,
      "anu": 1822,
      "Ġfinner": 1823,
      "Ġkommunen": 1824,
      "Ġenkelt": 1825,
      "orde": 1826,
      "gt": 1827,
      "Ġfjer": 1828,
      "rasjon": 1829,
      "Ġjuni": 1830,
      "ĠstÃ¸tte": 1831,
      "unnet": 1832,
      "Ġsna": 1833,
      "eleg": 1834,
      "ĠmÃ¸te": 1835,
      "Ġoppf": 1836,
      "ator": 1837,
      "nader": 1838,
      "ue": 1839,
      "Ġ*": 1840,
      "ivers": 1841,
      "Ġproblem": 1842,
      "Ġstart": 1843,
      "ina": 1844,
      "Ġsig": 1845,
      "up": 1846,
      "Ġbek": 1847,
      "stitusjon": 1848,
      "Ġ%": 1849,
      "ron": 1850,
      "Ġtilbud": 1851,
      "fÃ¸lge": 1852,
      "Ġmus": 1853,
      "Ġ100": 1854,
      "fl": 1855,
      "Ġsalg": 1856,
      "snitt": 1857,
      "oli": 1858,
      "utom": 1859,
      "ĠHvis": 1860,
      "Ġinternasjon": 1861,
      "pa": 1862,
      "ĠSel": 1863,
      "Ġliten": 1864,
      "Ġallerede": 1865,
      "Ġmet": 1866,
      "ikt": 1867,
      "Ġsend": 1868,
      "Ġbor": 1869,
      "sport": 1870,
      "fra": 1871,
      "12": 1872,
      "Ġfer": 1873,
      "dri": 1874,
      "Ġneste": 1875,
      "iteen": 1876,
      "Ġsynes": 1877,
      "ves": 1878,
      "Ġmeld": 1879,
      "ĠBe": 1880,
      "okk": 1881,
      "ĠNe": 1882,
      "Ġ23": 1883,
      "Ġhav": 1884,
      "AN": 1885,
      "Ġhalv": 1886,
      "ja": 1887,
      "ĠDag": 1888,
      "Ġ24": 1889,
      "Ġjf": 1890,
      "vere": 1891,
      "Ġbort": 1892,
      "kont": 1893,
      "Ġfelles": 1894,
      "ï¿": 1895,
      "ï¿½": 1896,
      "tr": 1897,
      "lemmer": 1898,
      "Ġtem": 1899,
      "ĠÃ¸kt": 1900,
      "ĠTroms": 1901,
      "anter": 1902,
      "fin": 1903,
      "erer": 1904,
      "Ġinntekt": 1905,
      "senter": 1906,
      "Ġ196": 1907,
      "ĠKar": 1908,
      "nn": 1909,
      "Ġklart": 1910,
      "ĠnÃ¦rings": 1911,
      "ĠNy": 1912,
      "Ġbeny": 1913,
      "ress": 1914,
      "Ġfred": 1915,
      "kret": 1916,
      "Ġlikevel": 1917,
      "Ġsted": 1918,
      "ĠKon": 1919,
      "Ġslutt": 1920,
      "vert": 1921,
      "Ġderes": 1922,
      "ĠNorsk": 1923,
      "sket": 1924,
      "entlige": 1925,
      "uten": 1926,
      "elses": 1927,
      "Ġol": 1928,
      "enten": 1929,
      "Ġeng": 1930,
      "Ġinnenfor": 1931,
      "erte": 1932,
      "Ġind": 1933,
      "ĠÃ¥ret": 1934,
      "gifter": 1935,
      "ĠSÃ¸r": 1936,
      "ĠBr": 1937,
      "aller": 1938,
      "ĠHÃ¸y": 1939,
      "uelt": 1940,
      "Ġkontakt": 1941,
      "Ġpas": 1942,
      "ĠstÃ¸rste": 1943,
      "ĠÃ¸y": 1944,
      "deling": 1945,
      "Ġbety": 1946,
      "Ġkam": 1947,
      "ike": 1948,
      "petanse": 1949,
      "fon": 1950,
      "ĠTor": 1951,
      "Ġbetyd": 1952,
      "Ġmai": 1953,
      "kluder": 1954,
      "istrikt": 1955,
      "ĠMo": 1956,
      "Ġute": 1957,
      "syk": 1958,
      "Ġtiden": 1959,
      "Ġforskjel": 1960,
      "sted": 1961,
      "arbeidet": 1962,
      "iene": 1963,
      "fÃ¸res": 1964,
      "elsene": 1965,
      "Ġkli": 1966,
      "essig": 1967,
      "11": 1968,
      "Ġ,": 1969,
      "Ġnem": 1970,
      "Ġant": 1971,
      "Ġfant": 1972,
      "Ġutgang": 1973,
      "Ġselskap": 1974,
      "duksjon": 1975,
      "Ġmeget": 1976,
      "folk": 1977,
      "Ġkontroll": 1978,
      "ĠhÃ¥nd": 1979,
      "Ġregion": 1980,
      "isik": 1981,
      "Ġbyg": 1982,
      "Ġmennesker": 1983,
      "aten": 1984,
      "io": 1985,
      "Ġansatte": 1986,
      "Ġknyttet": 1987,
      "akk": 1988,
      "ĠStortinget": 1989,
      "ternativ": 1990,
      "ĠÂ»": 1991,
      "rifter": 1992,
      "Ġalltid": 1993,
      "rige": 1994,
      "Ġspesielt": 1995,
      "aljer": 1996,
      "Ġstilling": 1997,
      "Ġvart": 1998,
      "ĠÃ¥rene": 1999,
      "sut": 2000,
      "oto": 2001,
      "Ġkjent": 2002,
      "isen": 2003,
      "dus": 2004,
      "raks": 2005,
      "kÃ¥r": 2006,
      "ral": 2007,
      "enser": 2008,
      "Ġfinans": 2009,
      "Ġtry": 2010,
      "Ġvekt": 2011,
      "ĠHa": 2012,
      "klar": 2013,
      "anuar": 2014,
      "ĠAlle": 2015,
      "Ġsikre": 2016,
      "oler": 2017,
      "ĠâĢ¢": 2018,
      "Ġsenere": 2019,
      "ST": 2020,
      "ĠdÃ¥r": 2021,
      "Ġproduksjon": 2022,
      "Ġanlegg": 2023,
      "Ġspill": 2024,
      "Ġ|": 2025,
      "ktige": 2026,
      "bil": 2027,
      "Ġkunnskap": 2028,
      "ital": 2029,
      "Ġfylke": 2030,
      "rom": 2031,
      "Ġdokum": 2032,
      "ktur": 2033,
      "Ġvirk": 2034,
      "ĠÃ¥rs": 2035,
      "ball": 2036,
      "ĠVest": 2037,
      "Ġbehand": 2038,
      "Ġvedtak": 2039,
      "batt": 2040,
      "Ġgrat": 2041,
      "Ġtap": 2042,
      "sning": 2043,
      "sli": 2044,
      "Ġstraff": 2045,
      "sbe": 2046,
      "ingene": 2047,
      "Ġetabler": 2048,
      "akter": 2049,
      "Ġpunkt": 2050,
      "alte": 2051,
      "Ġbidra": 2052,
      "Ġlegge": 2053,
      "anlegg": 2054,
      "Ġtot": 2055,
      "elÃ¸p": 2056,
      "entar": 2057,
      "Ġkjem": 2058,
      "ET": 2059,
      "verket": 2060,
      "Ġrel": 2061,
      "igheter": 2062,
      "Ġhjem": 2063,
      "iale": 2064,
      "Ġdeler": 2065,
      "ju": 2066,
      "Ġsyk": 2067,
      "her": 2068,
      "Ġset": 2069,
      "Ġrom": 2070,
      "forsk": 2071,
      "Ġener": 2072,
      "trykk": 2073,
      "Ġsystem": 2074,
      "sd": 2075,
      "Ġdager": 2076,
      "sta": 2077,
      "pper": 2078,
      "sjekt": 2079,
      "Ġlett": 2080,
      "aly": 2081,
      "kast": 2082,
      "Ġbur": 2083,
      "ĠfÃ¸lgende": 2084,
      "Ġmyndighet": 2085,
      "Ġaldri": 2086,
      "ktÃ¸r": 2087,
      "Ġdere": 2088,
      "inne": 2089,
      "sette": 2090,
      "Ã¥s": 2091,
      "Ġkonse": 2092,
      "ĠundersÃ¸k": 2093,
      "rive": 2094,
      "Ġforteller": 2095,
      "Ġfjor": 2096,
      "Ġdra": 2097,
      "Ġbereg": 2098,
      "Ġverden": 2099,
      "ĠMan": 2100,
      "Ġsamtidig": 2101,
      "Ġerfar": 2102,
      "giv": 2103,
      "ansk": 2104,
      "one": 2105,
      "ift": 2106,
      "gjeng": 2107,
      "Ġutenfor": 2108,
      "Ġtrenger": 2109,
      "ĠgÃ¥tt": 2110,
      "Ġhistor": 2111,
      "Ġvert": 2112,
      "ĠnÃ¦rmere": 2113,
      "eren": 2114,
      "Ġavsl": 2115,
      "holder": 2116,
      "Ġjanuar": 2117,
      "isering": 2118,
      "Ġdagen": 2119,
      "15": 2120,
      "Ġtak": 2121,
      "Ã¸te": 2122,
      "âĢĶ": 2123,
      "Ġalder": 2124,
      "ĠOr": 2125,
      "Ġkomp": 2126,
      "ps": 2127,
      "Ġbudsjett": 2128,
      "Ġvanlig": 2129,
      "Ġtor": 2130,
      "rang": 2131,
      "ĠSol": 2132,
      "ĠSte": 2133,
      "rand": 2134,
      "fri": 2135,
      "Ġ&": 2136,
      "Ġdis": 2137,
      "Ġdyr": 2138,
      "Ġdirekte": 2139,
      "ĠThe": 2140,
      "verd": 2141,
      "Ġdom": 2142,
      "rÃ¸m": 2143,
      "):": 2144,
      "Ġbrukt": 2145,
      "val": 2146,
      "jÃ¸rn": 2147,
      "meld": 2148,
      "Ġadminist": 2149,
      "Ġrisik": 2150,
      "adet": 2151,
      "ĠFinn": 2152,
      "Ġis": 2153,
      "Ġ40": 2154,
      "raksis": 2155,
      "Ġsette": 2156,
      "rÃ¥k": 2157,
      "Ġoppg": 2158,
      "Ġvirksomhet": 2159,
      "ĠHva": 2160,
      "Ġtred": 2161,
      "Ġ2015": 2162,
      "Ġdisk": 2163,
      "post": 2164,
      "Ġdermed": 2165,
      "Ġlenge": 2166,
      "age": 2167,
      "Ġlav": 2168,
      "Ġtopp": 2169,
      "ĠUnder": 2170,
      "fÃ¸lg": 2171,
      "Ġkommet": 2172,
      "Ġul": 2173,
      "talen": 2174,
      "rav": 2175,
      "Ġmedlem": 2176,
      "Ġgjerne": 2177,
      "Ġtilsvar": 2178,
      "mot": 2179,
      "ĠFÃ¸r": 2180,
      "ou": 2181,
      "lemer": 2182,
      "Ġganger": 2183,
      "fjord": 2184,
      "Ġfunksjon": 2185,
      "Ġsommer": 2186,
      "ummer": 2187,
      "Ġforvalt": 2188,
      "mb": 2189,
      "Ġmod": 2190,
      "Ġus": 2191,
      "ah": 2192,
      "Ġaktivitet": 2193,
      "ittel": 2194,
      "fe": 2195,
      "mÃ¥l": 2196,
      "sland": 2197,
      "Ġbrukes": 2198,
      "Ġress": 2199,
      "oret": 2200,
      "ĠEuro": 2201,
      "Ġlaget": 2202,
      "isjonen": 2203,
      "Ġpo": 2204,
      "Ġfall": 2205,
      "ĠHv": 2206,
      "ĠDisse": 2207,
      "Ġves": 2208,
      "Ġutford": 2209,
      "Ġkir": 2210,
      "ĠStor": 2211,
      "Ġforutset": 2212,
      "insi": 2213,
      "ĠKommun": 2214,
      "int": 2215,
      "Ġgjorde": 2216,
      "Ġdy": 2217,
      "rene": 2218,
      "Ġpensjon": 2219,
      "Ġpub": 2220,
      "Ġposit": 2221,
      "Ġgodkj": 2222,
      "Ġskog": 2223,
      "Ġfeil": 2224,
      "Ġlegger": 2225,
      "Ġforsvar": 2226,
      "Ġgre": 2227,
      "Ġanbef": 2228,
      "Ġleng": 2229,
      "âĢĵ": 2230,
      "Ġ2017": 2231,
      "ĠaltsÃ¥": 2232,
      "Ġreguler": 2233,
      "ĠlÃ¦r": 2234,
      "ningsl": 2235,
      "Ġ2014": 2236,
      "riks": 2237,
      "landet": 2238,
      "anser": 2239,
      "ĠHe": 2240,
      "rum": 2241,
      "Ġdepartementet": 2242,
      "mannen": 2243,
      "Ġob": 2244,
      "Ġcasino": 2245,
      "polit": 2246,
      "ĠKom": 2247,
      "Ġdre": 2248,
      "bruks": 2249,
      "ĠhÃ¸r": 2250,
      "erson": 2251,
      "TB": 2252,
      "ppe": 2253,
      "Ġare": 2254,
      "Ġoffentlig": 2255,
      "ersom": 2256,
      "Ġses": 2257,
      "Ġmars": 2258,
      "stid": 2259,
      "Ġhy": 2260,
      "ĠAS": 2261,
      "Ġhev": 2262,
      "ĠsÃ¸n": 2263,
      "Ġop": 2264,
      "atene": 2265,
      "tallet": 2266,
      "ym": 2267,
      "Ġsol": 2268,
      "Ġhotell": 2269,
      "spill": 2270,
      "Ġsikkerhet": 2271,
      "ologi": 2272,
      "Ġkvalitet": 2273,
      "Ġtran": 2274,
      "Ġmidler": 2275,
      "mmen": 2276,
      "Ġrepresent": 2277,
      "Ġ28": 2278,
      "ĠRegjer": 2279,
      "ogg": 2280,
      "lighet": 2281,
      "sst": 2282,
      "fil": 2283,
      "Ġekstra": 2284,
      "Ġ26": 2285,
      "ern": 2286,
      "Ġforskjellige": 2287,
      "Ġfylkes": 2288,
      "Ġ2016": 2289,
      "ck": 2290,
      "Ġinns": 2291,
      "Ã¥ende": 2292,
      "ĠforstÃ¥": 2293,
      "Ġtall": 2294,
      "nev": 2295,
      "Ġalvor": 2296,
      "rÃ¥det": 2297,
      "Ġskje": 2298,
      "Ã¥nd": 2299,
      "ĠfÃ¸": 2300,
      "eland": 2301,
      "ata": 2302,
      "ĠvÃ¥rt": 2303,
      "Ġge": 2304,
      "Ġmarked": 2305,
      "Ġth": 2306,
      "ĠDersom": 2307,
      "Ġspiller": 2308,
      "Ġ27": 2309,
      "urt": 2310,
      "Ġak": 2311,
      "ĠnivÃ¥": 2312,
      "AR": 2313,
      "taler": 2314,
      "ĠEU": 2315,
      "Ġapr": 2316,
      "Ġendringer": 2317,
      "ban": 2318,
      "Ġholde": 2319,
      "ĠhÃ¸yere": 2320,
      "ader": 2321,
      "Ġbegge": 2322,
      "ĠRo": 2323,
      "vikling": 2324,
      "EL": 2325,
      "kn": 2326,
      "Ġbarnehag": 2327,
      "ren": 2328,
      "Ġslag": 2329,
      "Ġopprett": 2330,
      "line": 2331,
      "Ġsc": 2332,
      "irektor": 2333,
      "Ġimp": 2334,
      "Ġokt": 2335,
      "IL": 2336,
      "Ġbygge": 2337,
      "Ġkvinner": 2338,
      "Ġvek": 2339,
      "Ġkons": 2340,
      "Ġseks": 2341,
      "Ġvit": 2342,
      "Ġregel": 2343,
      "Ġbetyr": 2344,
      "Ġkm": 2345,
      "ystem": 2346,
      "ilde": 2347,
      "Ġmater": 2348,
      "Ġtv": 2349,
      "ĠKv": 2350,
      "Ġskriver": 2351,
      "Ġbetydning": 2352,
      "fold": 2353,
      "Ġkunst": 2354,
      "Ġeksp": 2355,
      "merik": 2356,
      "Ġskatte": 2357,
      "ager": 2358,
      "Ġskyld": 2359,
      "Ã¸v": 2360,
      "Ġanmel": 2361,
      "Ġkart": 2362,
      "Ġnov": 2363,
      "Ġgar": 2364,
      "Ġaks": 2365,
      "rar": 2366,
      "ĠomrÃ¥der": 2367,
      "ĠEg": 2368,
      "Ġlokal": 2369,
      "riften": 2370,
      "ges": 2371,
      "Ã¸rdag": 2372,
      "Ġkompetanse": 2373,
      "Ġbevil": 2374,
      "ober": 2375,
      "Ġrask": 2376,
      "Ġsammenheng": 2377,
      "Ġpenger": 2378,
      "lÃ¦ring": 2379,
      "ĠKl": 2380,
      "Ġunge": 2381,
      "Ġvei": 2382,
      "kkes": 2383,
      "isert": 2384,
      "Ġriktig": 2385,
      "eres": 2386,
      "17": 2387,
      "ĠUSA": 2388,
      "skole": 2389,
      "Ġ2013": 2390,
      "Ġsep": 2391,
      "visning": 2392,
      "ĠavgjÃ¸r": 2393,
      "ĠskjÃ¸": 2394,
      "yk": 2395,
      "Ġstre": 2396,
      "bygging": 2397,
      "18": 2398,
      "Ġmulighet": 2399,
      "Ġtilgjeng": 2400,
      "ĠPer": 2401,
      "Ġpolitiet": 2402,
      "ons": 2403,
      "igur": 2404,
      "holde": 2405,
      "giver": 2406,
      "abell": 2407,
      "Ġinkluder": 2408,
      "Ġvurdering": 2409,
      "com": 2410,
      "Ġnesten": 2411,
      "orer": 2412,
      "Ġko": 2413,
      "ĠVid": 2414,
      "spekt": 2415,
      "Ġaug": 2416,
      "Ġinneb": 2417,
      "........": 2418,
      "uss": 2419,
      "ĠAt": 2420,
      "Ġeier": 2421,
      "Ġegne": 2422,
      "Ġskatt": 2423,
      "Ġdagens": 2424,
      "skommun": 2425,
      "ved": 2426,
      "Ġutdanning": 2427,
      "menn": 2428,
      "ĠSand": 2429,
      "Ġmedlemmer": 2430,
      "ice": 2431,
      "Ġ2012": 2432,
      "aling": 2433,
      "Ġâ": 2434,
      "orgen": 2435,
      "ttes": 2436,
      "Ġgis": 2437,
      "Ġjuli": 2438,
      "man": 2439,
      "Ġapril": 2440,
      "ĠHel": 2441,
      "ĠkjÃ¸r": 2442,
      "Ġtraf": 2443,
      "Ġhvilke": 2444,
      "Ġkrig": 2445,
      "Ġmar": 2446,
      "Ġdesember": 2447,
      "ĠFin": 2448,
      "okus": 2449,
      "ĠFyl": 2450,
      "ĠLand": 2451,
      "Ġelekt": 2452,
      "Ġsaker": 2453,
      "Ġoffentlige": 2454,
      "Ġkonsekv": 2455,
      "yst": 2456,
      "orter": 2457,
      "ĠAndre": 2458,
      "Ġatt": 2459,
      "Ġho": 2460,
      "Ġpraksis": 2461,
      "bund": 2462,
      "Ġutgangspunkt": 2463,
      "Ġkamp": 2464,
      "pos": 2465,
      "ĠÃ©": 2466,
      "Ġforn": 2467,
      "Ġ195": 2468,
      "Ġalternativ": 2469,
      "40": 2470,
      "ĠSver": 2471,
      "ĠfÃ¸lger": 2472,
      "Ġstedet": 2473,
      "Ġbakgrunn": 2474,
      "ommen": 2475,
      "jekter": 2476,
      "Ġoverfor": 2477,
      "ĠPl": 2478,
      "elefon": 2479,
      "Ġopplev": 2480,
      "Ġforskning": 2481,
      "iste": 2482,
      "ĠGj": 2483,
      "ĠÃ¸konomiske": 2484,
      "Ãħ": 2485,
      "enset": 2486,
      "ins": 2487,
      "Ġ2011": 2488,
      "stend": 2489,
      "ht": 2490,
      "Ã¥ret": 2491,
      "liv": 2492,
      "ĠDetaljer": 2493,
      "plan": 2494,
      "Ġeiend": 2495,
      "ies": 2496,
      "Ġmenn": 2497,
      "Ġoper": 2498,
      "Ġganske": 2499,
      "omrÃ¥det": 2500,
      "tember": 2501,
      "ĠpÃ¥vir": 2502,
      "Ġga": 2503,
      "gjÃ¸": 2504,
      "aksjon": 2505,
      "Ġfeb": 2506,
      "Ġrek": 2507,
      "ĠBergen": 2508,
      "huset": 2509,
      "aliser": 2510,
      "Ġtredje": 2511,
      "Ġgratis": 2512,
      "Ġutvalg": 2513,
      "ING": 2514,
      "Ġlokale": 2515,
      "styret": 2516,
      "Ġsann": 2517,
      "ĠlÃ¸nn": 2518,
      "Ġsterk": 2519,
      "agn": 2520,
      "Ġvoks": 2521,
      "ĠmÃ¥ned": 2522,
      "ativt": 2523,
      "Ġpst": 2524,
      "stÃ¥r": 2525,
      "teg": 2526,
      "Ġluft": 2527,
      "Ġ29": 2528,
      "reng": 2529,
      "Ġtan": 2530,
      "dom": 2531,
      "lege": 2532,
      "Ġ#": 2533,
      "Ġkro": 2534,
      "ĠlÃ¸n": 2535,
      "ĠOver": 2536,
      "Ġkal": 2537,
      "Ġeget": 2538,
      "br": 2539,
      "Ġlenger": 2540,
      "ennes": 2541,
      "nem": 2542,
      "Ġmel": 2543,
      "Ġtill": 2544,
      "laget": 2545,
      "Ġ60": 2546,
      "Ġskjed": 2547,
      "hengig": 2548,
      "Ġstille": 2549,
      ".,": 2550,
      "Ġhenhold": 2551,
      "Ġjobb": 2552,
      "ink": 2553,
      "ense": 2554,
      "slaget": 2555,
      "Ġrette": 2556,
      "Ġven": 2557,
      "ĠkjÃ¸p": 2558,
      "ordning": 2559,
      "Ġpsyk": 2560,
      "vene": 2561,
      "van": 2562,
      "Ġregn": 2563,
      "Ġkommunene": 2564,
      "Ġskolen": 2565,
      "Ġyr": 2566,
      "Ġfunnet": 2567,
      "ĠbesÃ¸k": 2568,
      "grammet": 2569,
      "Ġprakt": 2570,
      "ĠTromsÃ¸": 2571,
      "vÃ¥": 2572,
      "ider": 2573,
      "ule": 2574,
      "ĠTrond": 2575,
      "Ġ2010": 2576,
      "ĠAd": 2577,
      "lever": 2578,
      "Ġforh": 2579,
      "uttet": 2580,
      "iversitet": 2581,
      "ĠDepartementet": 2582,
      "ruar": 2583,
      "ĠÃĺst": 2584,
      "kjÃ¸": 2585,
      "bu": 2586,
      "nte": 2587,
      "vok": 2588,
      "plass": 2589,
      "tok": 2590,
      "Ġsamlet": 2591,
      "Ġferdig": 2592,
      "Ġstats": 2593,
      "orge": 2594,
      "Ġendring": 2595,
      "Ġkonkurran": 2596,
      "aste": 2597,
      "ask": 2598,
      "Ġsagt": 2599,
      "kraft": 2600,
      "onn": 2601,
      "Ġmob": 2602,
      "Ġpass": 2603,
      "Ġplasser": 2604,
      "Ġmeter": 2605,
      "Ġkri": 2606,
      "Ġoktober": 2607,
      "fag": 2608,
      "ĠTV": 2609,
      "ĠKan": 2610,
      "vann": 2611,
      "Ġfler": 2612,
      "inister": 2613,
      "ĠÃ©n": 2614,
      "uell": 2615,
      "Ġvirke": 2616,
      "stemm": 2617,
      "Ġlik": 2618,
      "eks": 2619,
      "Ġregler": 2620,
      "Ġkn": 2621,
      "Ġkostnad": 2622,
      "16": 2623,
      "pÃ¥": 2624,
      "oss": 2625,
      "annen": 2626,
      "Ġinstitusjon": 2627,
      "ĠHol": 2628,
      "Ġint": 2629,
      "iere": 2630,
      "gangen": 2631,
      "ikasjon": 2632,
      "Ġforan": 2633,
      "atisk": 2634,
      "ykke": 2635,
      "irektoratet": 2636,
      "plikt": 2637,
      "Ġsterkt": 2638,
      "Ġinvester": 2639,
      "14": 2640,
      "ĠZ": 2641,
      "iali": 2642,
      "Ġindustri": 2643,
      "ingsm": 2644,
      "linger": 2645,
      "Ġnorm": 2646,
      "autom": 2647,
      "Ġfart": 2648,
      "stene": 2649,
      "ikkel": 2650,
      "Ġlu": 2651,
      "ĠFl": 2652,
      "Ġstar": 2653,
      "Ġlege": 2654,
      "skriv": 2655,
      "da": 2656,
      "fly": 2657,
      "ĠdÃ¸d": 2658,
      "ĠOgsÃ¥": 2659,
      "ĠStatens": 2660,
      "Ġseptember": 2661,
      "ĠPost": 2662,
      "Ġeneste": 2663,
      "Ġenda": 2664,
      "rapp": 2665,
      "Ġgen": 2666,
      "ĠRes": 2667,
      "Ġburde": 2668,
      "king": 2669,
      "Ġkrit": 2670,
      "Ġ2018": 2671,
      "eri": 2672,
      "Ġeldre": 2673,
      "ĠMange": 2674,
      "po": 2675,
      "Ġbesl": 2676,
      "ĠstÃ¥": 2677,
      "kommende": 2678,
      "Ġytter": 2679,
      "ĠspÃ¸rsmÃ¥let": 2680,
      "13": 2681,
      "gre": 2682,
      "splan": 2683,
      "Ġoms": 2684,
      "Ġkommuner": 2685,
      "bin": 2686,
      "Ġdig": 2687,
      "abil": 2688,
      "qu": 2689,
      "25": 2690,
      "rert": 2691,
      "hÃ¸r": 2692,
      "strekk": 2693,
      "Ġvirkelig": 2694,
      "ON": 2695,
      "ative": 2696,
      "pass": 2697,
      "Ġhjemm": 2698,
      "ĠJa": 2699,
      "ign": 2700,
      "itets": 2701,
      "Ġlin": 2702,
      "aren": 2703,
      "ĠHvor": 2704,
      "Ġab": 2705,
      "Ġprodus": 2706,
      "isin": 2707,
      "disjon": 2708,
      "Ġdata": 2709,
      "Ġaugust": 2710,
      "ograf": 2711,
      "aland": 2712,
      "essuten": 2713,
      "AL": 2714,
      "tekter": 2715,
      "ielle": 2716,
      "egn": 2717,
      "Ġbetydelig": 2718,
      "andre": 2719,
      "ĠIkke": 2720,
      "ors": 2721,
      "Ġuttal": 2722,
      "Ġnovember": 2723,
      "AT": 2724,
      "gde": 2725,
      "Ġja": 2726,
      "Ġuke": 2727,
      "iss": 2728,
      "iks": 2729,
      "rinn": 2730,
      "Ġperioden": 2731,
      "Ġvise": 2732,
      "ledes": 2733,
      "Ġverdens": 2734,
      "ww": 2735,
      "Ġlegges": 2736,
      "Ġfebruar": 2737,
      "skolen": 2738,
      "Ġnatt": 2739,
      "Ġhenne": 2740,
      "Ġner": 2741,
      "varet": 2742,
      "onus": 2743,
      "Ġtilsvarende": 2744,
      "Ġfaktisk": 2745,
      "Ã¥n": 2746,
      "ĠsÃ¸ndag": 2747,
      "Ġomfatt": 2748,
      "leder": 2749,
      "Ġoppn": 2750,
      "Ġtilfelle": 2751,
      "Ġbasert": 2752,
      "Ġbi": 2753,
      "Ġvinter": 2754,
      "Ġfolke": 2755,
      "RK": 2756,
      "Ġfiske": 2757,
      "Ġ194": 2758,
      "Ġseier": 2759,
      "Ġlivet": 2760,
      "Ġstaten": 2761,
      "Ġfokus": 2762,
      ".Â»": 2763,
      "ĠlÃ¦re": 2764,
      "ĠHot": 2765,
      "Ġkil": 2766,
      "Ġem": 2767,
      "ĠTo": 2768,
      "Ġdistrikt": 2769,
      "Ġoppd": 2770,
      "Ġspil": 2771,
      "avgift": 2772,
      "Ġproblemer": 2773,
      "ium": 2774,
      "esp": 2775,
      "Ġtilsyn": 2776,
      "Ġolje": 2777,
      "ĠÃ¸ke": 2778,
      "ĠlÃ¸rdag": 2779,
      "Ġvurdere": 2780,
      "Ġbyen": 2781,
      "Ġprinsi": 2782,
      "ĠsÃ¸knad": 2783,
      "ach": 2784,
      "ĠinnebÃ¦rer": 2785,
      "ĠdrÃ¸": 2786,
      "Ġtjenester": 2787,
      "ĠfÃ¸rer": 2788,
      "forhold": 2789,
      "utten": 2790,
      "ppen": 2791,
      "skont": 2792,
      "Ġstadig": 2793,
      "Ġvist": 2794,
      "ĠPolit": 2795,
      "agen": 2796,
      "serv": 2797,
      "ksomheten": 2798,
      "Ġ'": 2799,
      "svis": 2800,
      "fest": 2801,
      "Ġviktige": 2802,
      "vesen": 2803,
      "alet": 2804,
      "Ġbel": 2805,
      "Ġhjemme": 2806,
      "Ġfjell": 2807,
      "Ġpasi": 2808,
      "ES": 2809,
      "Ġtransport": 2810,
      "ĠgjÃ¸res": 2811,
      "Ġren": 2812,
      "ko": 2813,
      "dene": 2814,
      "Ġsjon": 2815,
      "Ġsosial": 2816,
      "oren": 2817,
      "partement": 2818,
      "ĠÃħr": 2819,
      "affe": 2820,
      "Ġminutter": 2821,
      "Ġbefolk": 2822,
      "Ġprodukt": 2823,
      "Ġpriori": 2824,
      "delige": 2825,
      "yt": 2826,
      "ĠHans": 2827,
      "Ġlys": 2828,
      "ĠDan": 2829,
      "ĠMer": 2830,
      "Ġke": 2831,
      "Ġ2009": 2832,
      "middel": 2833,
      "yret": 2834,
      "ase": 2835,
      "ĠformÃ¥l": 2836,
      "Ġsat": 2837,
      "ack": 2838,
      "utning": 2839,
      "kar": 2840,
      "legging": 2841,
      "Ġprivat": 2842,
      "ĠdÃ¥rlig": 2843,
      "ubb": 2844,
      "Ġtimer": 2845,
      "Ġnaturlig": 2846,
      "ĠgjennomfÃ¸rt": 2847,
      "tar": 2848,
      "jenesten": 2849,
      "ppet": 2850,
      "ĠforsÃ¸k": 2851,
      "Ġene": 2852,
      "ĠspÃ¸r": 2853,
      "Ġholdt": 2854,
      "Ġtas": 2855,
      "lin": 2856,
      "sloven": 2857,
      "ĠÃ¸konomisk": 2858,
      "ĠHam": 2859,
      "Ġgjer": 2860,
      "Ġ31": 2861,
      "mod": 2862,
      "ĠFred": 2863,
      "Ġprosjektet": 2864,
      "ĠBo": 2865,
      "arder": 2866,
      "Ġmoder": 2867,
      "ĠomrÃ¥de": 2868,
      "kost": 2869,
      "Ġprogram": 2870,
      "Ġgjennomsnitt": 2871,
      "Ġkvinn": 2872,
      "Ġmusikk": 2873,
      "kst": 2874,
      "Ġbedrift": 2875,
      "rol": 2876,
      "Ġarbeider": 2877,
      "ĠfÃ¸d": 2878,
      "rÃ¸r": 2879,
      "Ġpop": 2880,
      "use": 2881,
      "Ġhjelpe": 2882,
      "Ġnevnt": 2883,
      "mar": 2884,
      "ith": 2885,
      "vin": 2886,
      "Ġnemlig": 2887,
      "Ġban": 2888,
      "Ġopplysninger": 2889,
      "Ġreis": 2890,
      "Ġ70": 2891,
      "ikkert": 2892,
      "Ġinternasjonale": 2893,
      "ĠKn": 2894,
      "smessig": 2895,
      "Ġinnstilling": 2896,
      "Ġavtale": 2897,
      "ple": 2898,
      "Ġ2019": 2899,
      "Ġomsorg": 2900,
      "ity": 2901,
      "Ġring": 2902,
      "ĠNoen": 2903,
      "ĠvÃ¦r": 2904,
      "partiet": 2905,
      "ment": 2906,
      "ung": 2907,
      "sa": 2908,
      "ikring": 2909,
      "felt": 2910,
      "Ġmand": 2911,
      "ĠrÃ¥": 2912,
      "Ġanmeldelser": 2913,
      "Ġonline": 2914,
      "ĠSelv": 2915,
      "Ġtilk": 2916,
      "ĠvilkÃ¥r": 2917,
      "ĠFran": 2918,
      "ĠTid": 2919,
      "Ġdeltak": 2920,
      "'s": 2921,
      "fte": 2922,
      "Ġkrev": 2923,
      "stein": 2924,
      "nsdag": 2925,
      "Ġtidlig": 2926,
      "sÃ¸": 2927,
      "ĠhÃ¥per": 2928,
      "Ġrepre": 2929,
      "ĠBy": 2930,
      "mmene": 2931,
      "ledning": 2932,
      "Ġfr": 2933,
      "Ġforklar": 2934,
      "igheten": 2935,
      "setter": 2936,
      "ĠVidere": 2937,
      "ana": 2938,
      "Ġressur": 2939,
      "Ġvest": 2940,
      "Ġforelig": 2941,
      "anten": 2942,
      "inar": 2943,
      "Ġslikt": 2944,
      "irk": 2945,
      "Ġvold": 2946,
      "Ġtvil": 2947,
      "bare": 2948,
      "Ġoversikt": 2949,
      "Ġhund": 2950,
      "Ġnavn": 2951,
      "Ġenergi": 2952,
      "Ġviste": 2953,
      "Ġtilgjengelig": 2954,
      "ongen": 2955,
      "Ġprivate": 2956,
      "oteller": 2957,
      "rere": 2958,
      "Ġbetale": 2959,
      "Ġutvid": 2960,
      "Ġarrang": 2961,
      "bart": 2962,
      "jelp": 2963,
      "ĠNO": 2964,
      "Ġful": 2965,
      "ĠBod": 2966,
      "Ã¶": 2967,
      "ĠGe": 2968,
      "Ġfest": 2969,
      "ktiv": 2970,
      "usen": 2971,
      "Ġlavere": 2972,
      "essige": 2973,
      "ĠFoto": 2974,
      "kkel": 2975,
      "Ã¸ren": 2976,
      "livet": 2977,
      "Ġviktigste": 2978,
      "ĠmÃ¸ter": 2979,
      "srett": 2980,
      "Ġsteder": 2981,
      "Ġpolitiske": 2982,
      "ĠDerfor": 2983,
      "jekk": 2984,
      "organis": 2985,
      "Ġmis": 2986,
      "Ã¤": 2987,
      ".)": 2988,
      "Ġinntil": 2989,
      "Ġkonf": 2990,
      "Ġprof": 2991,
      "ED": 2992,
      "Ġso": 2993,
      "ĠBerg": 2994,
      "Ġakk": 2995,
      "Ġreise": 2996,
      "skaper": 2997,
      "ĠRegjeringen": 2998,
      "ĠsjÃ¸l": 2999,
      "Ġfylkeskommun": 3000,
      "Ġtilfeller": 3001,
      "ksjoner": 3002,
      "asje": 3003,
      "lisert": 3004,
      "Ġmist": 3005,
      "sminister": 3006,
      "ĠArbeider": 3007,
      "ĠTy": 3008,
      "ĠLa": 3009,
      "Ġanaly": 3010,
      "skom": 3011,
      "ĠHÃ¸": 3012,
      "urat": 3013,
      "ĠMa": 3014,
      "ĠtÃ¸r": 3015,
      "ssel": 3016,
      "Ġnasjonal": 3017,
      "vand": 3018,
      "Ġbrann": 3019,
      "ssk": 3020,
      "Ġbut": 3021,
      "ĠMid": 3022,
      "Ġhj": 3023,
      "ĠSy": 3024,
      "ĠAnder": 3025,
      "Ġfelt": 3026,
      "Ġ80": 3027,
      "Ġregistrer": 3028,
      "met": 3029,
      "iter": 3030,
      "ĠSverige": 3031,
      "Ġkarakter": 3032,
      "dt": 3033,
      "ĠlÃ¦rer": 3034,
      "ĠifÃ¸lge": 3035,
      "Ġungdom": 3036,
      "Ġutviklingen": 3037,
      "Ã¸s": 3038,
      "Ġekte": 3039,
      "Ġunderstre": 3040,
      "Ġeuro": 3041,
      "vÃ¦rende": 3042,
      "rale": 3043,
      "Ġholder": 3044,
      "isere": 3045,
      "tiden": 3046,
      "Ġamerik": 3047,
      "Ġskade": 3048,
      "Ġsannsyn": 3049,
      "ftet": 3050,
      "Ġsykehus": 3051,
      "Ġneg": 3052,
      "uer": 3053,
      "iell": 3054,
      "omrÃ¥de": 3055,
      "Ġpe": 3056,
      "Ġbevis": 3057,
      "Ġsektor": 3058,
      "ringen": 3059,
      "IS": 3060,
      "Ġuttrykk": 3061,
      "ritt": 3062,
      "ĠkjÃ¸pe": 3063,
      "Ġbarna": 3064,
      "ĠJan": 3065,
      "Ġvedkommende": 3066,
      "Ġfinansier": 3067,
      "mat": 3068,
      "Ġveien": 3069,
      "Ġavgift": 3070,
      "Ġpoeng": 3071,
      "ĠVar": 3072,
      "Ġlangs": 3073,
      "ips": 3074,
      "Ġfredag": 3075,
      "ĠIngen": 3076,
      "Ġsh": 3077,
      "ĠopplÃ¦ring": 3078,
      "ĠFylkes": 3079,
      "ete": 3080,
      "unde": 3081,
      "Ġsentrum": 3082,
      "Ġmuligheter": 3083,
      "Ġellers": 3084,
      "Ġinnhold": 3085,
      "Ġ2008": 3086,
      "lÃ¸p": 3087,
      "gaver": 3088,
      "ĠX": 3089,
      "ham": 3090,
      "ĠHoved": 3091,
      "??": 3092,
      "Norge": 3093,
      "Ġheter": 3094,
      "sav": 3095,
      "22": 3096,
      "unst": 3097,
      "Ġsamsvar": 3098,
      "synet": 3099,
      "Ġutstyr": 3100,
      "NTB": 3101,
      "apir": 3102,
      "Ġkapittel": 3103,
      "Ġbred": 3104,
      "Ġsven": 3105,
      "Ġstyrke": 3106,
      "Ġsammenlig": 3107,
      "ansett": 3108,
      "ienter": 3109,
      "lede": 3110,
      "Ġtradisjon": 3111,
      "obb": 3112,
      "ĠFr": 3113,
      "Ġforbruk": 3114,
      "Ġselskapet": 3115,
      "ĠprÃ¸ve": 3116,
      "Ġverk": 3117,
      "ogn": 3118,
      "ĠnÃ¸y": 3119,
      "Ġskape": 3120,
      "Ġtross": 3121,
      "05": 3122,
      "ateg": 3123,
      "rim": 3124,
      "Ġpot": 3125,
      "Ġ193": 3126,
      "talt": 3127,
      "Ġorganisasjon": 3128,
      "ĠHvordan": 3129,
      "Ġpriser": 3130,
      "iker": 3131,
      "Ġ500": 3132,
      "sesjon": 3133,
      "ident": 3134,
      "ĠBÃ¥": 3135,
      "Ġ35": 3136,
      "Ġtema": 3137,
      "Ġstartet": 3138,
      "skog": 3139,
      "Ġvia": 3140,
      "ytt": 3141,
      "Ġkurs": 3142,
      "Ġoppdrag": 3143,
      "Ġgjeldende": 3144,
      "Ġsendt": 3145,
      "Ġtilstrekk": 3146,
      "Ġba": 3147,
      "Ġforl": 3148,
      "Ġtilgang": 3149,
      "Ġtjeneste": 3150,
      "ĠNil": 3151,
      "Ġvesentlig": 3152,
      "ĠÃ¥rsak": 3153,
      "omme": 3154,
      "Ġhvilken": 3155,
      "Ġbarnet": 3156,
      "ĠSamtidig": 3157,
      "ĠStav": 3158,
      "ĠNRK": 3159,
      "rings": 3160,
      "ĠJohn": 3161,
      "Ġsty": 3162,
      "fart": 3163,
      "\".": 3164,
      "ĠUl": 3165,
      "Ġref": 3166,
      "ĸł": 3167,
      "enskap": 3168,
      "irsdag": 3169,
      "aster": 3170,
      "lar": 3171,
      "Ġtrafikk": 3172,
      "Ġlage": 3173,
      "slipp": 3174,
      "punkt": 3175,
      "Ġfilm": 3176,
      "inter": 3177,
      "Ġkrever": 3178,
      "OM": 3179,
      "lende": 3180,
      "setning": 3181,
      "Ġforeg": 3182,
      "iled": 3183,
      "Ġresultat": 3184,
      "Ġaktuelle": 3185,
      "Ġfry": 3186,
      "inst": 3187,
      "ommet": 3188,
      "visjon": 3189,
      "Ġsentral": 3190,
      "21": 3191,
      "ĠFol": 3192,
      "af": 3193,
      "loven": 3194,
      "ĠMe": 3195,
      "SB": 3196,
      "verdi": 3197,
      "Ġdine": 3198,
      "ĠHen": 3199,
      "ygge": 3200,
      "ure": 3201,
      "Ġrele": 3202,
      "Ġapp": 3203,
      "Ġjul": 3204,
      "ĠmÃ¥neder": 3205,
      "Ġkonkret": 3206,
      "ame": 3207,
      "Ġomfatter": 3208,
      "unt": 3209,
      "ime": 3210,
      "Ġforslaget": 3211,
      "imot": 3212,
      "Ġtom": 3213,
      "hav": 3214,
      "asj": 3215,
      "ĠCar": 3216,
      "Ġtydelig": 3217,
      "Ġas": 3218,
      "Ġspilleautom": 3219,
      "our": 3220,
      "ĠstÃ¸rr": 3221,
      "Ġutred": 3222,
      "ĠKap": 3223,
      "ĠEng": 3224,
      "Ġeksister": 3225,
      "ĠGud": 3226,
      "ĠOdd": 3227,
      "ement": 3228,
      "stÃ¸": 3229,
      "ĠtrÃ¥d": 3230,
      "Ġsto": 3231,
      "Ġhu": 3232,
      "Ġklare": 3233,
      "Ġverdi": 3234,
      "24": 3235,
      "Ġvekst": 3236,
      "utvikling": 3237,
      "Ġbestemt": 3238,
      "Ġsnart": 3239,
      "AS": 3240,
      "Ġbilder": 3241,
      "likk": 3242,
      "Ġfeng": 3243,
      "Ġ[": 3244,
      "Ġur": 3245,
      "Ġtilkny": 3246,
      "Ġvalgt": 3247,
      "ĠBjÃ¸rn": 3248,
      "Ġfamilie": 3249,
      "Ġpopul": 3250,
      "Ġsist": 3251,
      "ĠSm": 3252,
      "skl": 3253,
      "ĠForsk": 3254,
      "Ġfatt": 3255,
      "sid": 3256,
      "Ġum": 3257,
      "Ġhjer": 3258,
      "Ġkommentar": 3259,
      "ĠLes": 3260,
      "Ã¸yd": 3261,
      "ĠmÃ¥ten": 3262,
      "kene": 3263,
      "Ġvelge": 3264,
      "itte": 3265,
      "Ġsikt": 3266,
      "hver": 3267,
      "Ġloven": 3268,
      "ĠKont": 3269,
      "ĠforeslÃ¥r": 3270,
      "Ġjobber": 3271,
      "Ġandel": 3272,
      "Ġrolle": 3273,
      "Ġau": 3274,
      "bok": 3275,
      "ĠChrist": 3276,
      "vs": 3277,
      "aget": 3278,
      "Ġinteresse": 3279,
      "irektÃ¸r": 3280,
      "stitutt": 3281,
      "hel": 3282,
      "utte": 3283,
      "ĠfÃ¸rt": 3284,
      "ĠBil": 3285,
      "Ġforeldre": 3286,
      "deles": 3287,
      "Ġhvem": 3288,
      "Ġpark": 3289,
      "rygd": 3290,
      "Ġmorgen": 3291,
      "ĠTe": 3292,
      "Ġfys": 3293,
      "ologisk": 3294,
      "itu": 3295,
      "Ġimot": 3296,
      "ningslin": 3297,
      "Ġredusert": 3298,
      "Ġidrett": 3299,
      "forbund": 3300,
      "atert": 3301,
      "ĠPar": 3302,
      "une": 3303,
      "ĠSu": 3304,
      "Ġutny": 3305,
      "rivil": 3306,
      "asitet": 3307,
      "Ġfotball": 3308,
      "Ġbygd": 3309,
      "Ġvore": 3310,
      "Ġide": 3311,
      "gruppen": 3312,
      "nivÃ¥": 3313,
      "ĠdÃ¥": 3314,
      "ĠVis": 3315,
      "ĠVel": 3316,
      "ĠsprÃ¥k": 3317,
      "elsk": 3318,
      "legget": 3319,
      "middag": 3320,
      "Ġsetter": 3321,
      "aken": 3322,
      "ĠlÃ¸y": 3323,
      "ellen": 3324,
      "Ġregjering": 3325,
      "fyl": 3326,
      "skaps": 3327,
      "assdrag": 3328,
      "ĠÃ¥pen": 3329,
      "Ġinneholder": 3330,
      "Ġbrev": 3331,
      "Ġyrkes": 3332,
      "natt": 3333,
      "45": 3334,
      "spolit": 3335,
      "ĠsÃ¸ke": 3336,
      "OL": 3337,
      "Ġhverandre": 3338,
      "Ġhovedsak": 3339,
      "delingen": 3340,
      "Ġnasjonale": 3341,
      "gar": 3342,
      "Ġredusere": 3343,
      "ulig": 3344,
      "struktur": 3345,
      "Ġegentlig": 3346,
      "Ġrelativt": 3347,
      "gn": 3348,
      "Ġditt": 3349,
      "ĠÃ¸nsket": 3350,
      "Ġmeir": 3351,
      "hÃ¸": 3352,
      "ĠNo": 3353,
      "ordningen": 3354,
      "Ġstopp": 3355,
      "co": 3356,
      "ĠlÃ¸p": 3357,
      "Ġivaret": 3358,
      "edag": 3359,
      "ĠbestÃ¥r": 3360,
      "Ġkampen": 3361,
      "Ġmitt": 3362,
      "Ġkonkurranse": 3363,
      "ĠTrondheim": 3364,
      "asjer": 3365,
      "Ġsituasjon": 3366,
      "kap": 3367,
      "Ġfullt": 3368,
      "jenester": 3369,
      "Ġenten": 3370,
      "Ġformann": 3371,
      "ĠEuropa": 3372,
      "Ġpolitisk": 3373,
      "Ġ+": 3374,
      "als": 3375,
      "Ġvenn": 3376,
      "ĠSv": 3377,
      "ĠSh": 3378,
      "bed": 3379,
      "ĠinngÃ¥": 3380,
      "Ġarbeidsm": 3381,
      "odet": 3382,
      "Ġeventuelt": 3383,
      "Ġbord": 3384,
      "Ġtett": 3385,
      "Ġbonus": 3386,
      "itter": 3387,
      "gjÃ¸re": 3388,
      "ĠGjennom": 3389,
      "spart": 3390,
      "Ġdebatt": 3391,
      "ĠNew": 3392,
      "23": 3393,
      "Ġoppfyl": 3394,
      "Ġsku": 3395,
      "Ġfolket": 3396,
      "lo": 3397,
      "len": 3398,
      "bas": 3399,
      "Ġtilfred": 3400,
      "Ġ2007": 3401,
      "holdt": 3402,
      "ĠBodÃ¸": 3403,
      "iets": 3404,
      "Ġtilskudd": 3405,
      "ĠMÃ¥l": 3406,
      "ivid": 3407,
      "allen": 3408,
      "Ġregjeringen": 3409,
      "lis": 3410,
      "Ġarbeidst": 3411,
      "Ġuav": 3412,
      "Ġforret": 3413,
      "ĠSlik": 3414,
      "Ġvere": 3415,
      "ologiske": 3416,
      "ĠNordland": 3417,
      "Ġpublik": 3418,
      "Ġsituasjonen": 3419,
      "vist": 3420,
      "Ġbry": 3421,
      "vare": 3422,
      "omrÃ¥der": 3423,
      "Ġuker": 3424,
      "etil": 3425,
      "bladet": 3426,
      "ĠFlere": 3427,
      "Ġinterv": 3428,
      "ĠÃ¸kning": 3429,
      "ĠKj": 3430,
      "fisk": 3431,
      "Ġ2000": 3432,
      "Ġverne": 3433,
      "jeneste": 3434,
      "ĠHus": 3435,
      "Ã¸tet": 3436,
      "Ġna": 3437,
      "Ġsentrale": 3438,
      "60": 3439,
      "alle": 3440,
      "Ġskip": 3441,
      "Ġkvart": 3442,
      "Ġinst": 3443,
      "Ġler": 3444,
      "veien": 3445,
      "ĠSer": 3446,
      "Ġutvikle": 3447,
      "Ġleve": 3448,
      "verks": 3449,
      "ekter": 3450,
      "Ġtorsdag": 3451,
      "ĠForsvar": 3452,
      "Ġunntak": 3453,
      "atning": 3454,
      "kort": 3455,
      "Ġtelefon": 3456,
      "ĠlÃ¥n": 3457,
      "Ġytterligere": 3458,
      "Ġtu": 3459,
      "Ġonsdag": 3460,
      "Ġjern": 3461,
      "ĠAlt": 3462,
      "Ġrim": 3463,
      "St": 3464,
      "Ġhennes": 3465,
      "Ġsikkert": 3466,
      "tegi": 3467,
      "standen": 3468,
      "Ġsterke": 3469,
      "etten": 3470,
      "ĠSch": 3471,
      "ath": 3472,
      "inen": 3473,
      "Ġvare": 3474,
      "leie": 3475,
      "ĠutgjÃ¸r": 3476,
      "Ġsky": 3477,
      "Ġstem": 3478,
      "Ġartikkel": 3479,
      "arar": 3480,
      "Ġtilbak": 3481,
      "Ġvedtatt": 3482,
      "Ġmilit": 3483,
      "!!": 3484,
      "Ġvant": 3485,
      "ften": 3486,
      "ĠHÃ¥": 3487,
      "Ġning": 3488,
      "Ġsats": 3489,
      "Ġretten": 3490,
      "Ġbillig": 3491,
      "Ġgje": 3492,
      "Ġmannen": 3493,
      "Ġvarer": 3494,
      "Ġtilstrekkelig": 3495,
      "Ġident": 3496,
      "ĠhÃ¸yt": 3497,
      "valt": 3498,
      "âĢ¦": 3499,
      "Ġmask": 3500,
      "ĠBruk": 3501,
      "Ġforf": 3502,
      "person": 3503,
      "Ġkjenner": 3504,
      "Ġbedrifter": 3505,
      "Ġbevilg": 3506,
      "Ġraskt": 3507,
      "ĠÃ¸vrig": 3508,
      "Ġbestemmelser": 3509,
      "ĠIfÃ¸lge": 3510,
      "ĠVÃ¥r": 3511,
      "Ġinnbygg": 3512,
      "ĠStavanger": 3513,
      "Ġbu": 3514,
      "pris": 3515,
      "sep": 3516,
      "Ġgammel": 3517,
      "Ġpasser": 3518,
      "enne": 3519,
      "avnet": 3520,
      "Ġtal": 3521,
      "indre": 3522,
      "Ġoppmer": 3523,
      "KT": 3524,
      "03": 3525,
      "Ġkur": 3526,
      "andid": 3527,
      "ĠGod": 3528,
      "Ġval": 3529,
      "199": 3530,
      "Ġvelger": 3531,
      "ibli": 3532,
      "ĠUtvalget": 3533,
      "Ġskj": 3534,
      "Ġmerk": 3535,
      "Ġskyldes": 3536,
      "Ġstandard": 3537,
      "ĠMart": 3538,
      "abri": 3539,
      "essen": 3540,
      "olf": 3541,
      "settes": 3542,
      "rike": 3543,
      "Ġbygget": 3544,
      "gjer": 3545,
      "ĠhÃ¸st": 3546,
      "produksjon": 3547,
      "eker": 3548,
      "Ġnoko": 3549,
      "Ġsju": 3550,
      "ork": 3551,
      "Ġsosiale": 3552,
      "Ġfru": 3553,
      "ingar": 3554,
      "ĠQ": 3555,
      "splikt": 3556,
      "ffer": 3557,
      "Ġdefin": 3558,
      "ikere": 3559,
      "ĠBu": 3560,
      "full": 3561,
      "Ġrefer": 3562,
      "ĠVeg": 3563,
      "ennende": 3564,
      "ĠNÃ¦r": 3565,
      "sels": 3566,
      "Ġstyret": 3567,
      "ĠsÃ¥k": 3568,
      "Ġvarier": 3569,
      "'''": 3570,
      "Ã¸ker": 3571,
      "kring": 3572,
      "Ġfunger": 3573,
      "Ġforskrift": 3574,
      "ĠDei": 3575,
      "Ġregistrert": 3576,
      "iger": 3577,
      "Ġhensikt": 3578,
      "Ġhandling": 3579,
      "gder": 3580,
      "Ġskol": 3581,
      "ĠnÃ¦rheten": 3582,
      "ĠRom": 3583,
      "stendig": 3584,
      "Ġkommunale": 3585,
      "sreg": 3586,
      "ĠÃ¸vrige": 3587,
      "delag": 3588,
      "lov": 3589,
      "RA": 3590,
      "varer": 3591,
      "Ġmidt": 3592,
      "ĠStud": 3593,
      "Ġgruppe": 3594,
      "Ġklass": 3595,
      "behandling": 3596,
      "ĠVe": 3597,
      "stoff": 3598,
      "rives": 3599,
      "Ġgrupper": 3600,
      "Ġaktiv": 3601,
      "Ġbekre": 3602,
      "parten": 3603,
      "Ġelever": 3604,
      "ĠlÃ¸s": 3605,
      "ĠlÃ¸nns": 3606,
      "Ġlese": 3607,
      "ai": 3608,
      "staur": 3609,
      "Ġglad": 3610,
      "ĠBra": 3611,
      "Ġstyre": 3612,
      "Ã¸st": 3613,
      "06": 3614,
      "okrat": 3615,
      "Ġ2005": 3616,
      "ĠArt": 3617,
      "Ġmon": 3618,
      "minn": 3619,
      "Ġdisp": 3620,
      "Ġstatsb": 3621,
      "mo": 3622,
      "dann": 3623,
      "Ġareal": 3624,
      "Ġfremst": 3625,
      "ĠCo": 3626,
      "Ġdokumenter": 3627,
      "Ġkirke": 3628,
      "Ġfang": 3629,
      "Ġnettopp": 3630,
      "ĠtÃ¸": 3631,
      "Ġerstat": 3632,
      "Ġbilde": 3633,
      "09": 3634,
      "ĠÃ¥rets": 3635,
      "Ġdri": 3636,
      "Ġsamm": 3637,
      "ĠennÃ¥": 3638,
      "ettet": 3639,
      "Ġutform": 3640,
      "Ġdelta": 3641,
      "ĠSve": 3642,
      "ĠBeg": 3643,
      "Ġsign": 3644,
      "Ġakkurat": 3645,
      "ĠHaug": 3646,
      "alif": 3647,
      "Ġgro": 3648,
      "Ġvera": 3649,
      "ĠsnÃ¸": 3650,
      "mon": 3651,
      "sjektet": 3652,
      "ĠHal": 3653,
      "eloven": 3654,
      "enk": 3655,
      "ĠFinnmark": 3656,
      "Ġsettes": 3657,
      "Ġordning": 3658,
      "late": 3659,
      "Ġbidrag": 3660,
      "gene": 3661,
      "Ġmedisin": 3662,
      "Ġark": 3663,
      "bered": 3664,
      "Ġutgifter": 3665,
      "Ġpeng": 3666,
      "alder": 3667,
      "Ġhelst": 3668,
      "Ġrisiko": 3669,
      "ningsm": 3670,
      "iz": 3671,
      "Ġbist": 3672,
      "ato": 3673,
      "Ġmakt": 3674,
      "02": 3675,
      "Ġch": 3676,
      "Ġdo": 3677,
      "fÃ¸rte": 3678,
      "ĠÃ¸konomi": 3679,
      "ĠHÃ¸yre": 3680,
      "ĠforsÃ¸": 3681,
      "Ġdaglig": 3682,
      "Ġ2006": 3683,
      "Ġutover": 3684,
      "ubben": 3685,
      "kant": 3686,
      "ĠII": 3687,
      "ĠKong": 3688,
      "oter": 3689,
      "utvalget": 3690,
      "Ġvind": 3691,
      "nÃ¦r": 3692,
      "Ġ2020": 3693,
      "Ġvedlike": 3694,
      "Ġtenke": 3695,
      "Ġstoff": 3696,
      "taket": 3697,
      "somt": 3698,
      "Ġhoteller": 3699,
      "undersÃ¸k": 3700,
      "Ġomfattende": 3701,
      "partementets": 3702,
      "onen": 3703,
      "borg": 3704,
      "Ġprem": 3705,
      "Ġ45": 3706,
      "Ġhandler": 3707,
      "ĠEi": 3708,
      "ĠKjÃ¸": 3709,
      "Ġlands": 3710,
      "uts": 3711,
      "ĠArne": 3712,
      "Ġsitter": 3713,
      "ich": 3714,
      "sent": 3715,
      "ansvar": 3716,
      "Ġsannsynlig": 3717,
      "kjÃ¸r": 3718,
      "ĠunngÃ¥": 3719,
      "enfor": 3720,
      "ĠoppfÃ¸lg": 3721,
      "ulle": 3722,
      "ssystem": 3723,
      "ĠFisk": 3724,
      "Ġforskjell": 3725,
      "vokat": 3726,
      "ĠFN": 3727,
      "ĠSc": 3728,
      "sagt": 3729,
      "Ã¦ren": 3730,
      "Ġforsknings": 3731,
      "ssjef": 3732,
      "enta": 3733,
      "liser": 3734,
      "08": 3735,
      "mor": 3736,
      "Ġstr": 3737,
      "rolig": 3738,
      "ĠLike": 3739,
      "ika": 3740,
      "Ġinstru": 3741,
      "atelse": 3742,
      "Ġlo": 3743,
      "siden": 3744,
      "Ġtest": 3745,
      "Ġtidspunkt": 3746,
      "Ġselve": 3747,
      "nr": 3748,
      "alisering": 3749,
      "Ġsamfunnet": 3750,
      "vest": 3751,
      "Ġbud": 3752,
      "//": 3753,
      "Ġteg": 3754,
      "ĠrÃ¸": 3755,
      "Ġeffektiv": 3756,
      "Ġskad": 3757,
      "ph": 3758,
      "vensjon": 3759,
      "Ġ33": 3760,
      "Ġforbed": 3761,
      "Ġprosjekter": 3762,
      "Ġklo": 3763,
      "Ġ01": 3764,
      "grep": 3765,
      "iserte": 3766,
      "ĠIntern": 3767,
      "ibliote": 3768,
      "ĠBÃ¥de": 3769,
      "Ġerfaring": 3770,
      "Ã¸rene": 3771,
      "ĠRog": 3772,
      "ĠJon": 3773,
      "Ġvises": 3774,
      "Ġalene": 3775,
      "iat": 3776,
      "Ġtonn": 3777,
      "Ġviss": 3778,
      "Ġadministrasjon": 3779,
      "Ġbilen": 3780,
      "uter": 3781,
      "system": 3782,
      "ĠHotel": 3783,
      "ĠhÃ¸re": 3784,
      "Ġperiode": 3785,
      "ĠKr": 3786,
      "ĠHo": 3787,
      "Ġtirsdag": 3788,
      "Ġinteresser": 3789,
      "Ġyn": 3790,
      "ĠrÃ¸y": 3791,
      "ĠLang": 3792,
      "TE": 3793,
      "Ġlengre": 3794,
      "ID": 3795,
      "Ġutarbeid": 3796,
      "Ġanledning": 3797,
      "Ġstudie": 3798,
      "virksomhet": 3799,
      "Ġutenland": 3800,
      "Ġbegynte": 3801,
      "Ġkonsesjon": 3802,
      "Ġforeligger": 3803,
      "idler": 3804,
      "Ġfrivil": 3805,
      "Ġx": 3806,
      "dde": 3807,
      "Ġserv": 3808,
      "Ġvari": 3809,
      "Ġvide": 3810,
      "Ġtime": 3811,
      "hjelp": 3812,
      "ĠTa": 3813,
      "ĠLeg": 3814,
      "unkter": 3815,
      "Ġeig": 3816,
      "Ġforhandling": 3817,
      "enning": 3818,
      "Ġsikker": 3819,
      "nda": 3820,
      "Ġforeld": 3821,
      "ĠNorske": 3822,
      "bane": 3823,
      "ĠBeste": 3824,
      "Ġkol": 3825,
      "mte": 3826,
      "ĠÃ¸kte": 3827,
      "ba": 3828,
      "Ġmine": 3829,
      "lekt": 3830,
      "etak": 3831,
      "orn": 3832,
      "Ġindivid": 3833,
      "ĠLar": 3834,
      "04": 3835,
      "Ġrimelig": 3836,
      "ĠhÃ¸g": 3837,
      "Ġpolitikk": 3838,
      "ĠPub": 3839,
      "resse": 3840,
      "ĠPa": 3841,
      "Ġslutten": 3842,
      "ruktur": 3843,
      "Ġinteress": 3844,
      "Ġbidrar": 3845,
      "ĠOle": 3846,
      "amer": 3847,
      "Ġrestaur": 3848,
      "ielt": 3849,
      "Ġetablert": 3850,
      "ĠGl": 3851,
      "ĠAm": 3852,
      "ock": 3853,
      "gjort": 3854,
      "Ġit": 3855,
      "ĠFOR": 3856,
      "Ġutbet": 3857,
      "ĠlÃ¸sning": 3858,
      "Ġtillit": 3859,
      "UN": 3860,
      "reditt": 3861,
      "Ġforrige": 3862,
      "miljÃ¸": 3863,
      "Ġuh": 3864,
      "Ġkombin": 3865,
      "Ġamb": 3866,
      "Ġ90": 3867,
      "Ġnab": 3868,
      "Ġenig": 3869,
      "asjons": 3870,
      "ĠÃĺy": 3871,
      "Ġutvalget": 3872,
      "://": 3873,
      "Ġ2004": 3874,
      "Ġnen": 3875,
      "Ġtype": 3876,
      "blem": 3877,
      "Ġtreng": 3878,
      "ereg": 3879,
      "sem": 3880,
      "unne": 3881,
      "Ġretningslin": 3882,
      "Ġansvaret": 3883,
      "ving": 3884,
      "Ġkommunest": 3885,
      "inntekt": 3886,
      "Ġfyr": 3887,
      "dere": 3888,
      "Ġsende": 3889,
      "Ġva": 3890,
      "istikk": 3891,
      "ksjonen": 3892,
      "Ġskrive": 3893,
      "ĠVer": 3894,
      "Ġann": 3895,
      "Ġutdan": 3896,
      "ĠSl": 3897,
      "Ġinnsats": 3898,
      "Ġgenerelt": 3899,
      "sol": 3900,
      "27": 3901,
      "Ġmente": 3902,
      "ood": 3903,
      "stillinger": 3904,
      "litet": 3905,
      "park": 3906,
      "26": 3907,
      "Ġarbeide": 3908,
      "Ġbom": 3909,
      "Ġing": 3910,
      "ĠOlav": 3911,
      "jÃ¸en": 3912,
      "ĠsÃ¸ker": 3913,
      "ĠAk": 3914,
      "ĠAnne": 3915,
      "Det": 3916,
      "ĠÃ¸st": 3917,
      "ollen": 3918,
      "ifte": 3919,
      "28": 3920,
      "ĠVÃ¥": 3921,
      "str": 3922,
      "Ġlange": 3923,
      "Ġtale": 3924,
      "Ġmarkeds": 3925,
      "ebo": 3926,
      "Ġstiller": 3927,
      "abel": 3928,
      "delsen": 3929,
      "Ġvurdert": 3930,
      "Ġopptatt": 3931,
      "sjef": 3932,
      "ĠHelse": 3933,
      "Ġfint": 3934,
      "Ġuansett": 3935,
      "Ġvite": 3936,
      "ĠslÃ¥": 3937,
      "Ġ300": 3938,
      "Ġfantast": 3939,
      "band": 3940,
      "Ġger": 3941,
      "Ġ...": 3942,
      "rak": 3943,
      "ettere": 3944,
      "Ġhelhet": 3945,
      "ĠTer": 3946,
      "Ġderetter": 3947,
      "ĠVerd": 3948,
      "Ġjev": 3949,
      "RE": 3950,
      "Ġlyd": 3951,
      "Ġmasse": 3952,
      "ĠErik": 3953,
      "Ġtver": 3954,
      "ĠnÃ¸dvendige": 3955,
      "ĠÂ·": 3956,
      "35": 3957,
      "aen": 3958,
      "vei": 3959,
      "ĠLars": 3960,
      "stedet": 3961,
      "Ġtun": 3962,
      "ĠsÃ¦rsk": 3963,
      "Ġunna": 3964,
      "Ġpreg": 3965,
      "ĠbelÃ¸p": 3966,
      "Ġberre": 3967,
      "ĠhÃ¸sten": 3968,
      "Ġmeste": 3969,
      "gÃ¥ende": 3970,
      "sberg": 3971,
      "stander": 3972,
      "Ġkjente": 3973,
      ",-": 3974,
      "SK": 3975,
      "Ġinnvand": 3976,
      "VE": 3977,
      "Ġ=": 3978,
      "ĠgjennomfÃ¸re": 3979,
      "bruket": 3980,
      "Ġtotalt": 3981,
      "Ġmobil": 3982,
      "ĠÃ¸ker": 3983,
      "ĠFil": 3984,
      "Ġavhengig": 3985,
      "Ġslags": 3986,
      "ĠFrank": 3987,
      "Ġfamilien": 3988,
      "ĠKnut": 3989,
      "Ġmening": 3990,
      "stilt": 3991,
      "Ġutbygging": 3992,
      "vent": 3993,
      "Ġhuset": 3994,
      "Ġinte": 3995,
      "Ġprodukter": 3996,
      "Ġmotor": 3997,
      "ĠHansen": 3998,
      "Ġefter": 3999,
      "attes": 4000,
      "ĠBre": 4001,
      "ÃĺS": 4002,
      "Ġbank": 4003,
      "Ġdessuten": 4004,
      "Ġvisse": 4005,
      "Ġinkludert": 4006,
      "ĠMin": 4007,
      "Ġoven": 4008,
      "Ġpresse": 4009,
      "nende": 4010,
      "Ġ36": 4011,
      "29": 4012,
      "Ġopphold": 4013,
      "Ġresten": 4014,
      "Ġtet": 4015,
      "ĠÃ¸nsk": 4016,
      "stiltak": 4017,
      "sler": 4018,
      "ĠVen": 4019,
      "irma": 4020,
      "ĠforeslÃ¥tt": 4021,
      "ĠÃ¥pne": 4022,
      "ĠNei": 4023,
      "Ġ2003": 4024,
      "ĠDra": 4025,
      "urer": 4026,
      "budet": 4027,
      "Ġressurser": 4028,
      "leis": 4029,
      "Ġdokument": 4030,
      "Ġendret": 4031,
      "ĠEller": 4032,
      "Ġâĸł": 4033,
      "Ġmarkedet": 4034,
      "Ġinnlegg": 4035,
      "OT": 4036,
      "Ġfisker": 4037,
      "Ġsem": 4038,
      "Ġadgang": 4039,
      "sopp": 4040,
      "Ġtabell": 4041,
      "Ġarbeidspl": 4042,
      "ĠLov": 4043,
      "Ġradi": 4044,
      "Ġhum": 4045,
      "vd": 4046,
      "Ġoppt": 4047,
      "Ġtrolig": 4048,
      "Ġfortsette": 4049,
      "Ġsaman": 4050,
      "Ġplanlegg": 4051,
      "Ġvurderes": 4052,
      "Ã¥ringen": 4053,
      "minister": 4054,
      "Ġframtid": 4055,
      "fÃ¸ringen": 4056,
      "Ġflertall": 4057,
      "rÃ¸y": 4058,
      "ĠkjÃ¸re": 4059,
      "jema": 4060,
      "Ġeurope": 4061,
      "stav": 4062,
      "ktÃ¸y": 4063,
      "Ġautom": 4064,
      "yrk": 4065,
      "Ġtrygg": 4066,
      "Ġomkring": 4067,
      "ikke": 4068,
      "Ġpublikum": 4069,
      "ros": 4070,
      "Ġforvaltning": 4071,
      "ĠVil": 4072,
      "stÃ¥ende": 4073,
      "eningen": 4074,
      "forening": 4075,
      "Ġhistorie": 4076,
      "Ġklasse": 4077,
      "tning": 4078,
      "Ġfas": 4079,
      "Ġvenner": 4080,
      "Ġkolle": 4081,
      "07": 4082,
      "Ġmyndigheter": 4083,
      "ĠgrÃ¸n": 4084,
      "angen": 4085,
      "ĠFolke": 4086,
      "anne": 4087,
      "Ġsikte": 4088,
      "ians": 4089,
      "ĠRus": 4090,
      "Ġsiv": 4091,
      "Ġbehovet": 4092,
      "Ġbal": 4093,
      "Ġresultater": 4094,
      "gruppe": 4095,
      "Ġrapport": 4096,
      "istisk": 4097,
      "Ġwith": 4098,
      "peratur": 4099,
      "Ġmyk": 4100,
      "nere": 4101,
      "Ġpress": 4102,
      "Ġspennende": 4103,
      "Ġstemmer": 4104,
      "Ġkontor": 4105,
      "ĠKir": 4106,
      "ĠfÃ¸ler": 4107,
      "ĠSV": 4108,
      "KK": 4109,
      "rÃ¥dene": 4110,
      "Ġopprinn": 4111,
      "skland": 4112,
      "th": 4113,
      "Ġalvorlig": 4114,
      "sty": 4115,
      "Ġsame": 4116,
      "Ġbegynner": 4117,
      "Ġtilbyr": 4118,
      "Ġbef": 4119,
      "Ġrut": 4120,
      "ĠÃ¸nske": 4121,
      "ĠbÃ¦re": 4122,
      "Ġungdoms": 4123,
      "Ġdesse": 4124,
      "Ġtyper": 4125,
      "Ġbos": 4126,
      "Ġreiser": 4127,
      "ĠMon": 4128,
      "Ġbeveg": 4129,
      "Ġ37": 4130,
      "Ġskikk": 4131,
      "eth": 4132,
      "Ã¸ya": 4133,
      "Ġdrive": 4134,
      "Ġenhver": 4135,
      "Ġreglene": 4136,
      "ĠST": 4137,
      "Ġ'''": 4138,
      "skraft": 4139,
      "formasjon": 4140,
      "Ġomfang": 4141,
      "ĠSjÃ¸": 4142,
      "Ġskrevet": 4143,
      "ĠSiden": 4144,
      "Ġdelen": 4145,
      "ĠDel": 4146,
      "Ġbre": 4147,
      "Ġtakk": 4148,
      "Ġskjedde": 4149,
      "Ġhvorfor": 4150,
      "Ġleg": 4151,
      "Ġgangen": 4152,
      "Ġbegrenset": 4153,
      "Ġspesielle": 4154,
      "amen": 4155,
      "ĠsjÃ¥": 4156,
      "Ġmennesk": 4157,
      "Ġ09": 4158,
      "Ġendre": 4159,
      "jet": 4160,
      "Ġsve": 4161,
      "Ġblod": 4162,
      "Ġbenyttes": 4163,
      "Ġkommunikasjon": 4164,
      "stud": 4165,
      "orger": 4166,
      "Ġeksisterende": 4167,
      "Ġordin": 4168,
      "ĠdirektÃ¸r": 4169,
      "ĠBru": 4170,
      "IT": 4171,
      "-,": 4172,
      "ssels": 4173,
      "Ġpoliti": 4174,
      "ellet": 4175,
      "ĠTre": 4176,
      "orte": 4177,
      "iti": 4178,
      "ensene": 4179,
      "Ġelevene": 4180,
      "Ġnu": 4181,
      "kjent": 4182,
      "roller": 4183,
      "Ġ34": 4184,
      "Ġmerke": 4185,
      "gere": 4186,
      "urens": 4187,
      "grupper": 4188,
      "Ġkunde": 4189,
      "Ġdels": 4190,
      "port": 4191,
      "ĠOlsen": 4192,
      "handler": 4193,
      "Ġpet": 4194,
      "kommun": 4195,
      "ĠblÃ¥": 4196,
      "ĠTot": 4197,
      "giftene": 4198,
      "Ġuniversitet": 4199,
      "ĠlÃ¸sninger": 4200,
      "Ġvirker": 4201,
      "Ġdriver": 4202,
      "Ġoverra": 4203,
      "udsjettet": 4204,
      "Ġskrift": 4205,
      "Ġalko": 4206,
      "ĠGener": 4207,
      "sept": 4208,
      "Ġmilliarder": 4209,
      "aven": 4210,
      "ĠLille": 4211,
      "rest": 4212,
      "repet": 4213,
      "Ġjobbe": 4214,
      "elem": 4215,
      "Ġlar": 4216,
      "Ġfi": 4217,
      "prÃ¸": 4218,
      "sby": 4219,
      "eregÃ¥ende": 4220,
      "ĠÃ¥tte": 4221,
      "Ġforetak": 4222,
      "but": 4223,
      "Tr": 4224,
      "Ġvoksne": 4225,
      "Ġnot": 4226,
      "ty": 4227,
      "\",": 4228,
      "Ġtilsk": 4229,
      "Ġopplyser": 4230,
      "Ġflott": 4231,
      "itÃ©": 4232,
      "Ġsub": 4233,
      "plasser": 4234,
      "ton": 4235,
      "Ġplaner": 4236,
      "Ġkapital": 4237,
      "ogen": 4238,
      "Ġkonser": 4239,
      "sken": 4240,
      "ĠrÃ¸d": 4241,
      "ĠoppgÃ¥": 4242,
      "stillingen": 4243,
      "Ġintervju": 4244,
      "stemer": 4245,
      "Ġlyst": 4246,
      "Ġminste": 4247,
      "Ġspilleautomater": 4248,
      "bÃ¥": 4249,
      "Ġblogg": 4250,
      "Ġgjeng": 4251,
      "Ġslett": 4252,
      "Ġkontrakt": 4253,
      "Ġopt": 4254,
      "ffe": 4255,
      "sled": 4256,
      "ĠforeslÃ¥s": 4257,
      "Ġinsp": 4258,
      "Ġferie": 4259,
      "ĠNett": 4260,
      "allet": 4261,
      ".-": 4262,
      "ĠBlant": 4263,
      "senterer": 4264,
      "Ġvirksomheten": 4265,
      "Ġvok": 4266,
      "80": 4267,
      "__": 4268,
      "ĠutfÃ¸rt": 4269,
      "delt": 4270,
      "ransport": 4271,
      "Ġretning": 4272,
      "Ġcm": 4273,
      "Ġkvinne": 4274,
      "iler": 4275,
      "ralt": 4276,
      "industri": 4277,
      "Ġkund": 4278,
      "Ġbehandlet": 4279,
      "ĠUten": 4280,
      "Ġgjel": 4281,
      "Ġsider": 4282,
      "ĠKristian": 4283,
      "lys": 4284,
      "Ġ75": 4285,
      "ĠKarl": 4286,
      "delen": 4287,
      "kningen": 4288,
      "fjell": 4289,
      "Ġford": 4290,
      "trent": 4291,
      "ante": 4292,
      "Ġbered": 4293,
      "Ġeval": 4294,
      "Ġkvalif": 4295,
      "Ġutl": 4296,
      "iteens": 4297,
      "vende": 4298,
      "deleg": 4299,
      "ĠHau": 4300,
      "Ġkraftig": 4301,
      "pas": 4302,
      "Ġhet": 4303,
      "Ġvenstre": 4304,
      "Ã¦ringen": 4305,
      "Ġordningen": 4306,
      "ĠsÃ¥ledes": 4307,
      "IG": 4308,
      "Ġlager": 4309,
      "Ġutslipp": 4310,
      "former": 4311,
      "Ġutsatt": 4312,
      "Ġfleire": 4313,
      "ĠPetter": 4314,
      "Ġdelvis": 4315,
      "Ġkostnader": 4316,
      "ĠDermed": 4317,
      "Ġleil": 4318,
      "ĠBjÃ¸r": 4319,
      "sson": 4320,
      "undet": 4321,
      "kr": 4322,
      "Ġtanke": 4323,
      "Ġtilpass": 4324,
      "Ġlille": 4325,
      "Ġliker": 4326,
      "Ġblom": 4327,
      "Ġendelig": 4328,
      "stol": 4329,
      "ĠPeder": 4330,
      "Ġflykt": 4331,
      "way": 4332,
      "Ġbegrens": 4333,
      "Ġskjedd": 4334,
      "vekst": 4335,
      "otte": 4336,
      "Ġstruktur": 4337,
      "ales": 4338,
      "Ġforplikt": 4339,
      "sleder": 4340,
      "Ġundervisning": 4341,
      "Ġarbeidsgiver": 4342,
      "isme": 4343,
      "................": 4344,
      "ordin": 4345,
      "Ã¸ndelag": 4346,
      "amm": 4347,
      "Ġgodkjent": 4348,
      "Ġamerikanske": 4349,
      "kor": 4350,
      "Ġpasienter": 4351,
      "ash": 4352,
      "Ġfekk": 4353,
      "Ġforholdet": 4354,
      "Ġuly": 4355,
      "Ġvarme": 4356,
      "Ġveiled": 4357,
      "sbehandling": 4358,
      "Ġkonsekvenser": 4359,
      "Ġplikt": 4360,
      "sc": 4361,
      "ĠOG": 4362,
      "samling": 4363,
      "ĠGunn": 4364,
      "ĠvideregÃ¥ende": 4365,
      "ĠMark": 4366,
      "risk": 4367,
      "rÃ¸rende": 4368,
      "Ġka": 4369,
      "ĠoppnÃ¥": 4370,
      "ampen": 4371,
      "Ġstarter": 4372,
      "Ġmandag": 4373,
      "ĠkjÃ¦r": 4374,
      "jerne": 4375,
      "orsk": 4376,
      "Ġmoderne": 4377,
      "ĠRiks": 4378,
      "ose": 4379,
      "Ġutlandet": 4380,
      "ĠMot": 4381,
      "elÃ¸pig": 4382,
      "ight": 4383,
      "brudd": 4384,
      "Ġavvik": 4385,
      "arane": 4386,
      "Ġavdeling": 4387,
      "Ġ2002": 4388,
      "ĠFinans": 4389,
      "Ġregulering": 4390,
      "ĠMiljÃ¸": 4391,
      "ĠRÃ¸": 4392,
      "ĠGrunn": 4393,
      "nede": 4394,
      "Ġkjenn": 4395,
      "ĠRed": 4396,
      "Ġoppgave": 4397,
      "vidt": 4398,
      "Ġinntekter": 4399,
      "ĠmÃ¸tet": 4400,
      "gum": 4401,
      "produ": 4402,
      "ĠDanmark": 4403,
      "Ġtrening": 4404,
      "Ġrettigheter": 4405,
      "Ġavis": 4406,
      "iÃ¸r": 4407,
      "Ġ)": 4408,
      "antene": 4409,
      "ekte": 4410,
      "des": 4411,
      "Ġoppdag": 4412,
      "speri": 4413,
      "etting": 4414,
      "Ġderimot": 4415,
      "Ġker": 4416,
      "ĠKomiteen": 4417,
      "AG": 4418,
      "Ġfare": 4419,
      "Ġbygger": 4420,
      "ĠResult": 4421,
      "iftet": 4422,
      "Ġ39": 4423,
      "Ġborte": 4424,
      "Ġex": 4425,
      "ĠdÃ¸de": 4426,
      "Ġvedlikehold": 4427,
      "skol": 4428,
      "Ġpasient": 4429,
      "egr": 4430,
      "ĠfornÃ¸yd": 4431,
      "ĠSa": 4432,
      "esel": 4433,
      "Ġanses": 4434,
      "Ġjobben": 4435,
      "ĠEd": 4436,
      "Ġutviklet": 4437,
      "Ġ1990": 4438,
      "Ġenkel": 4439,
      "ĠEin": 4440,
      "fort": 4441,
      "Ġutan": 4442,
      "asjonene": 4443,
      "Ġlen": 4444,
      "Ġmuligheten": 4445,
      "rip": 4446,
      "Ġhtt": 4447,
      "Ġnes": 4448,
      "ĠAp": 4449,
      "vi": 4450,
      "Ġ2001": 4451,
      "Ġment": 4452,
      "Ġvassdrag": 4453,
      "ĠLu": 4454,
      "ction": 4455,
      "ĠPris": 4456,
      "ĠEF": 4457,
      "ĠOrd": 4458,
      "ĠHand": 4459,
      "AV": 4460,
      "Ġski": 4461,
      "Ġalminn": 4462,
      "kjÃ¸p": 4463,
      "Ġkg": 4464,
      "US": 4465,
      "sra": 4466,
      "Ġmag": 4467,
      "Ġnei": 4468,
      "plassen": 4469,
      "Ġfungerer": 4470,
      "Ġaut": 4471,
      "Â§": 4472,
      "Ġsjeld": 4473,
      "Ġskoler": 4474,
      "ĠEÃĺS": 4475,
      "tene": 4476,
      "start": 4477,
      "setting": 4478,
      "Ġselvsagt": 4479,
      ".:": 4480,
      "posisjon": 4481,
      "amma": 4482,
      "vit": 4483,
      "Ġass": 4484,
      "ala": 4485,
      "skost": 4486,
      "jern": 4487,
      "rimin": 4488,
      "Ġfremme": 4489,
      "Ġ38": 4490,
      "enting": 4491,
      "Ġfortsetter": 4492,
      "Ġpresident": 4493,
      "ĠVik": 4494,
      "Ġutfordringer": 4495,
      "Ġundervis": 4496,
      "Ġnormalt": 4497,
      "Ġforek": 4498,
      "ĠSenter": 4499,
      "Ġjakt": 4500,
      "ĠhÃ¸ye": 4501,
      "Ġpraktisk": 4502,
      "LE": 4503,
      "ĠmÃ¸r": 4504,
      "ialist": 4505,
      "esjon": 4506,
      "Ġni": 4507,
      "hjem": 4508,
      "slov": 4509,
      "essor": 4510,
      "ĠJu": 4511,
      "Ġklima": 4512,
      "Ġomgang": 4513,
      "ĠEk": 4514,
      "Ġ08": 4515,
      "Ã¸se": 4516,
      "banen": 4517,
      "ĠstrÃ¸m": 4518,
      "Ġnom": 4519,
      "OS": 4520,
      "peri": 4521,
      "rende": 4522,
      "Ġbekym": 4523,
      "eliv": 4524,
      "dels": 4525,
      "ĠavgjÃ¸rende": 4526,
      "ĠKultur": 4527,
      "ometer": 4528,
      "Ġdekke": 4529,
      "ines": 4530,
      "Ġbildet": 4531,
      "Ġleie": 4532,
      "ĠCasino": 4533,
      "Ġenerg": 4534,
      "Ġkry": 4535,
      "ĠoppfÃ¸lging": 4536,
      "Ġvidt": 4537,
      "Ġpotens": 4538,
      "Ġrapporten": 4539,
      "Ġformid": 4540,
      "rans": 4541,
      "likter": 4542,
      "Ġsvak": 4543,
      "elighet": 4544,
      "Ġdro": 4545,
      "ras": 4546,
      "55": 4547,
      "edal": 4548,
      "Ġtils": 4549,
      "sentert": 4550,
      "ĠforeslÃ¥": 4551,
      "Ġgru": 4552,
      "ĠprÃ¸ver": 4553,
      "Ã¥rene": 4554,
      "ĠKjell": 4555,
      "Ġtilby": 4556,
      "Ġfastsatt": 4557,
      "Ġopplever": 4558,
      "orm": 4559,
      "Ġramme": 4560,
      "ĠInter": 4561,
      "Ġwh": 4562,
      "Ġdobb": 4563,
      "Ġjour": 4564,
      "Ġutgangspunktet": 4565,
      "Ġ400": 4566,
      "ĠHotell": 4567,
      "Ġmottak": 4568,
      "Ġspor": 4569,
      "ĠVG": 4570,
      "Ġherunder": 4571,
      "iserer": 4572,
      "kommen": 4573,
      "Ġtyn": 4574,
      "bord": 4575,
      "Ġrabatt": 4576,
      "aldt": 4577,
      "stet": 4578,
      "gitt": 4579,
      "sektor": 4580,
      "asin": 4581,
      "Ġtog": 4582,
      "Ġim": 4583,
      "Ġbrukte": 4584,
      "Ġfran": 4585,
      "son": 4586,
      "ĠordfÃ¸rer": 4587,
      "Ġbus": 4588,
      "haug": 4589,
      "Ġforbud": 4590,
      "Ġtenker": 4591,
      "Ġmelding": 4592,
      "mÃ¥": 4593,
      "esser": 4594,
      "utvik": 4595,
      "Ġrev": 4596,
      "alj": 4597,
      "Ġsamlede": 4598,
      "Ġsyssels": 4599,
      "avtalen": 4600,
      "ĠUniversitet": 4601,
      "Ġskaffe": 4602,
      "Ġresp": 4603,
      "ĠNasjon": 4604,
      "hÃ¸y": 4605,
      "Ġnytte": 4606,
      "skon": 4607,
      "Ġutfordring": 4608,
      "ĠThor": 4609,
      "Ġutbygg": 4610,
      "ĠFar": 4611,
      "valitet": 4612,
      "Ġnevnte": 4613,
      "fun": 4614,
      "Ġkob": 4615,
      "Ġsoli": 4616,
      "Ġskrev": 4617,
      "Ġbefolkningen": 4618,
      "Ġstol": 4619,
      "ĠFylkesmannen": 4620,
      "ĠfÃ¦r": 4621,
      "ena": 4622,
      "ĠÃ¥rlig": 4623,
      "Ġstudenter": 4624,
      "Ġprogrammet": 4625,
      "Ġtilrett": 4626,
      "Ġforeb": 4627,
      "Ġkomiteen": 4628,
      "institusjon": 4629,
      "ĠEx": 4630,
      "aktivitet": 4631,
      "Ġstudent": 4632,
      "Ġfaste": 4633,
      "Ġaktuelt": 4634,
      "strÃ¸m": 4635,
      "Ġlandets": 4636,
      "Ġsykdom": 4637,
      "Ġkapasitet": 4638,
      "fÃ¸lgelig": 4639,
      "ĠTyskland": 4640,
      "Ġomtrent": 4641,
      "edagog": 4642,
      "inde": 4643,
      "Ġjur": 4644,
      "Ġkyst": 4645,
      "identen": 4646,
      "Ġsesong": 4647,
      "Ġnummer": 4648,
      "Ġadministrat": 4649,
      "Ġfa": 4650,
      "Ġspesial": 4651,
      "asen": 4652,
      "Ġkva": 4653,
      "Ġteknisk": 4654,
      "Ġsko": 4655,
      "ulere": 4656,
      "stille": 4657,
      "Ġleverand": 4658,
      "Ġforel": 4659,
      "Ġberegnet": 4660,
      "Ġmykje": 4661,
      "Ġelektron": 4662,
      "ĠSent": 4663,
      "Ġgrense": 4664,
      "ĠBa": 4665,
      "ipp": 4666,
      "ĠKristians": 4667,
      "Ġry": 4668,
      "Ġanna": 4669,
      "Ġdann": 4670,
      "Ġorganisasjoner": 4671,
      "ĠSn": 4672,
      "Ġinvol": 4673,
      "Ġsek": 4674,
      "ĠFrem": 4675,
      "ĠkjÃ¦re": 4676,
      "ĠSÃ¸k": 4677,
      "Ġoppgaver": 4678,
      "Ġprim": 4679,
      "ĠIt": 4680,
      "Ġretts": 4681,
      "IF": 4682,
      "Ġmaks": 4683,
      "Ġ32": 4684,
      "messig": 4685,
      "mmes": 4686,
      "dagen": 4687,
      "formen": 4688,
      "ategor": 4689,
      "ĠJÃ¸r": 4690,
      "Ġgav": 4691,
      "Ġspe": 4692,
      "ĠstÃ¸rst": 4693,
      "Ġkrimin": 4694,
      "siktig": 4695,
      "ram": 4696,
      "ĠnÃ¦ring": 4697,
      "ĠSos": 4698,
      "Ġbarnehage": 4699,
      "elag": 4700,
      "redning": 4701,
      "utdanning": 4702,
      "Ġvanlige": 4703,
      "Ġsentralt": 4704,
      "Ġutrolig": 4705,
      "Ġyt": 4706,
      "Ġtekniske": 4707,
      "Ġtj": 4708,
      "naden": 4709,
      "ĠhÃ¸rer": 4710,
      "99": 4711,
      "Ġgjelde": 4712,
      "Ġvelferd": 4713,
      "Ġbod": 4714,
      "rad": 4715,
      "Ġmillion": 4716,
      "ĠTru": 4717,
      "Ġvers": 4718,
      "uddet": 4719,
      "Ġerst": 4720,
      "Ġoppe": 4721,
      "Ġelev": 4722,
      "ĠslÃ¥tt": 4723,
      "tta": 4724,
      "skatt": 4725,
      "Ġdigit": 4726,
      "Ġmun": 4727,
      "ĠTek": 4728,
      "olusjon": 4729,
      "Ġheim": 4730,
      "atn": 4731,
      "Ġung": 4732,
      "SL": 4733,
      "Ġriks": 4734,
      "Ġsov": 4735,
      "imum": 4736,
      "settelse": 4737,
      "For": 4738,
      "ĠGrat": 4739,
      "Ġsal": 4740,
      "Ġbland": 4741,
      "Ġstrid": 4742,
      "Ġskader": 4743,
      "Ġsvenske": 4744,
      "Ġplanen": 4745,
      "75": 4746,
      "Ġvak": 4747,
      "Ġkje": 4748,
      "Ġgul": 4749,
      "Ġkvar": 4750,
      "70": 4751,
      "Ġklarer": 4752,
      "bank": 4753,
      "Ġbeskjed": 4754,
      "Ġanven": 4755,
      "ema": 4756,
      "kretÃ¦r": 4757,
      "Ġressurs": 4758,
      "Ġlei": 4759,
      "ĠinngÃ¥r": 4760,
      "ĠmÃ¥let": 4761,
      "ĠMartin": 4762,
      "sarbeid": 4763,
      "Ġtoll": 4764,
      "ĠRapp": 4765,
      "Ġgeneral": 4766,
      "Ġfyller": 4767,
      "ĠJohan": 4768,
      "ĠnÃ¸": 4769,
      "Ġbrans": 4770,
      "bÃ¸": 4771,
      "Ġlettere": 4772,
      "Ġrekr": 4773,
      "melding": 4774,
      "ror": 4775,
      "Ġreduksjon": 4776,
      "Ġtrekke": 4777,
      "ĠAust": 4778,
      "ĠAlta": 4779,
      "Ġeiendom": 4780,
      "its": 4781,
      "ĠTabell": 4782,
      "Â«": 4783,
      "kkende": 4784,
      "ĠMag": 4785,
      "Ġmenneske": 4786,
      "Ġmangler": 4787,
      "Ġalkohol": 4788,
      "Ġdriv": 4789,
      "ĠSpÃ¸rsmÃ¥l": 4790,
      "Ġfjerde": 4791,
      "vant": 4792,
      "Ġprest": 4793,
      "Ġ00": 4794,
      "bak": 4795,
      "Ġkonflikt": 4796,
      "Ġforetatt": 4797,
      "parti": 4798,
      "Ġskriv": 4799,
      "kre": 4800,
      "Ġtri": 4801,
      "ĠSkal": 4802,
      "kan": 4803,
      "Ġgull": 4804,
      "Ġpositive": 4805,
      "Ġske": 4806,
      "Ġhotellet": 4807,
      "send": 4808,
      "virkning": 4809,
      "Ġgrunnlegg": 4810,
      "nevnte": 4811,
      "Ġsnakke": 4812,
      "rette": 4813,
      "ĠWil": 4814,
      "out": 4815,
      "gje": 4816,
      "Ġmaterial": 4817,
      "spÃ¸rsmÃ¥l": 4818,
      "ĠPolitiet": 4819,
      "kka": 4820,
      "Ġvente": 4821,
      "skj": 4822,
      "leve": 4823,
      "AM": 4824,
      "39": 4825,
      "Ġ>": 4826,
      "merket": 4827,
      "Ġslo": 4828,
      "ita": 4829,
      "Ġ1999": 4830,
      "ulering": 4831,
      "Ġprisen": 4832,
      "Ġbistand": 4833,
      "Ġfaglig": 4834,
      "somrÃ¥": 4835,
      "gte": 4836,
      "Ġledelse": 4837,
      "ĠfÃ¸dt": 4838,
      "Ġfaller": 4839,
      "ĠNed": 4840,
      "ĠPres": 4841,
      "ĠIN": 4842,
      "ĠBarne": 4843,
      "ix": 4844,
      "Ġligge": 4845,
      "selen": 4846,
      "Ġrapporter": 4847,
      "Ġtids": 4848,
      "Ġavtalen": 4849,
      "Ġprote": 4850,
      "ĠFigur": 4851,
      "Ġforsv": 4852,
      "bel": 4853,
      "verre": 4854,
      "Ġventet": 4855,
      "vne": 4856,
      "Ġstein": 4857,
      "gave": 4858,
      "Ġsommeren": 4859,
      "ĠJohansen": 4860,
      "ĠFord": 4861,
      "ĠTom": 4862,
      "Ġsykd": 4863,
      "ari": 4864,
      "illa": 4865,
      "Ġtene": 4866,
      "Ġbokstav": 4867,
      "ysten": 4868,
      "ingets": 4869,
      "Ġhundre": 4870,
      "Ġrik": 4871,
      "able": 4872,
      "Ġsvarte": 4873,
      "ĠEnd": 4874,
      "nali": 4875,
      "sle": 4876,
      "Ġ:)": 4877,
      "utvalg": 4878,
      "estil": 4879,
      "Ġdemokrat": 4880,
      "ĠAnd": 4881,
      "Ġstemme": 4882,
      "Ġgruppen": 4883,
      "Ġ55": 4884,
      "ikerne": 4885,
      "onde": 4886,
      "Ġruss": 4887,
      "saken": 4888,
      "ukt": 4889,
      "smÃ¸te": 4890,
      "pensjon": 4891,
      "ĠgjennomfÃ¸res": 4892,
      "Ġprioriter": 4893,
      "ulerer": 4894,
      "ĠpÃ¥legg": 4895,
      "ĠÃ¥pnet": 4896,
      "ca": 4897,
      "Ġlover": 4898,
      "ĠBare": 4899,
      "Ġretningslinjer": 4900,
      "Ġstod": 4901,
      "Ġspillere": 4902,
      "Ġglede": 4903,
      "iseres": 4904,
      "isten": 4905,
      "god": 4906,
      "banken": 4907,
      "Ġaktiviteter": 4908,
      "iddel": 4909,
      "Ġbro": 4910,
      "ommene": 4911,
      "Ġforholdene": 4912,
      "Ġgu": 4913,
      "Ġstudier": 4914,
      "Ġskaper": 4915,
      "lagte": 4916,
      "rapport": 4917,
      "Ġsvarer": 4918,
      "itiativ": 4919,
      "Ġeventuelle": 4920,
      "Ġ;": 4921,
      "Ġmodell": 4922,
      "pros": 4923,
      "esta": 4924,
      "Ġargum": 4925,
      "ĠSpes": 4926,
      "ĠNes": 4927,
      "ĠTIL": 4928,
      "ĠPart": 4929,
      "ensasjon": 4930,
      "Ġprosess": 4931,
      "ĠSammen": 4932,
      "Ġkreve": 4933,
      "ĠstatsrÃ¥d": 4934,
      "acebo": 4935,
      "Ġtotal": 4936,
      "akult": 4937,
      "menter": 4938,
      "ondon": 4939,
      "ĠlÃ¸se": 4940,
      "uren": 4941,
      "ania": 4942,
      "ittil": 4943,
      "Ġfremtid": 4944,
      "Ġpositiv": 4945,
      "ĠstÃ¸rrelse": 4946,
      "ĠKomm": 4947,
      "Ġfritt": 4948,
      "Ġmuse": 4949,
      "ilitet": 4950,
      "sord": 4951,
      "kontroll": 4952,
      "Ġkonsent": 4953,
      "Ġrettet": 4954,
      "skrift": 4955,
      "Ġsamarbeidet": 4956,
      "Ġregner": 4957,
      "ĠSeiv": 4958,
      "Ġkravet": 4959,
      "ĠgjennomfÃ¸ring": 4960,
      "Ġtrekk": 4961,
      "ĠBank": 4962,
      "Ġpositivt": 4963,
      "Ġregnskap": 4964,
      "riksen": 4965,
      "mus": 4966,
      "ĠsÃ¥r": 4967,
      "33": 4968,
      "Ġfremdeles": 4969,
      "ias": 4970,
      "Ã¥rd": 4971,
      "Ġintegr": 4972,
      "Ġkat": 4973,
      "ions": 4974,
      "ĠsÃ¸rge": 4975,
      "Ġjule": 4976,
      "tting": 4977,
      "ĠDessuten": 4978,
      "Ġgev": 4979,
      "ustis": 4980,
      "Ġtenkt": 4981,
      "Ġsport": 4982,
      "Ġfengsel": 4983,
      "esund": 4984,
      "Ġvalgte": 4985,
      "grammer": 4986,
      "Ġ44": 4987,
      "Ġresultatet": 4988,
      "90": 4989,
      "ĠHarald": 4990,
      "Ġreali": 4991,
      "ĠNr": 4992,
      "oten": 4993,
      "ĠGu": 4994,
      "Ġgutt": 4995,
      "Ġregionale": 4996,
      "ĠTry": 4997,
      "Ġoverord": 4998,
      "Ġbeid": 4999,
      "ĠSen": 5000,
      "Ġerstatning": 5001,
      "Ã¸rs": 5002,
      "Ġtvang": 5003,
      "Ġtilknytning": 5004,
      "Ġhr": 5005,
      "ĠslÃ¥r": 5006,
      "riske": 5007,
      "Ġnest": 5008,
      "ĠRussland": 5009,
      "Ġ48": 5010,
      "ĠMens": 5011,
      "Ġuavhengig": 5012,
      "gÃ¥rd": 5013,
      "Ġkunder": 5014,
      "Ġlignende": 5015,
      "Ġsang": 5016,
      "Ġtida": 5017,
      "ĠMel": 5018,
      "ĠRÃ¥d": 5019,
      "Ġrul": 5020,
      "Ġspesif": 5021,
      "Ġpartiet": 5022,
      "Ġtren": 5023,
      "havn": 5024,
      "orene": 5025,
      "Ġlinje": 5026,
      "ĠPublisert": 5027,
      "Ã¼": 5028,
      "Ġsje": 5029,
      "ĠvÃ¥ren": 5030,
      "skaff": 5031,
      "ĠMic": 5032,
      "anti": 5033,
      "Ġkandid": 5034,
      "lemmene": 5035,
      "ĠFly": 5036,
      "Ġovergang": 5037,
      "ĠInge": 5038,
      "etÃ¸y": 5039,
      "Ġutarbeidet": 5040,
      "Ġengelsk": 5041,
      "ĠforhÃ¥nd": 5042,
      "sstill": 5043,
      "rud": 5044,
      "ssam": 5045,
      "hemm": 5046,
      "Ġkonkrete": 5047,
      "Ġtusen": 5048,
      "Ġturen": 5049,
      "Ġlokalt": 5050,
      "sessen": 5051,
      "Ġoppfatning": 5052,
      "Ġvirkning": 5053,
      "klart": 5054,
      "Ġkrigen": 5055,
      "Ġabsol": 5056,
      "ĠBet": 5057,
      "Ġfav": 5058,
      "Ġhygg": 5059,
      "spektiv": 5060,
      "Ġfantastisk": 5061,
      "sens": 5062,
      "Ġerfaringer": 5063,
      "ĠBak": 5064,
      "Ġken": 5065,
      "36": 5066,
      "Ġansvarlig": 5067,
      "jar": 5068,
      "Ġgenerelle": 5069,
      "nadene": 5070,
      "bur": 5071,
      "ĠVenstre": 5072,
      "Ġbrit": 5073,
      "ĠSÃ¸n": 5074,
      "Ġaf": 5075,
      "Ġfylket": 5076,
      "Ġmangel": 5077,
      "Ġstarte": 5078,
      "ovasjon": 5079,
      "ĠsjÃ¸lv": 5080,
      "Ġstatlige": 5081,
      "oker": 5082,
      "ksen": 5083,
      "gan": 5084,
      "sto": 5085,
      "Ġ150": 5086,
      "ĠbÃ¥t": 5087,
      "ica": 5088,
      "ĠTÃ¸n": 5089,
      "Ġkontin": 5090,
      "Ġvinne": 5091,
      "Ġdess": 5092,
      "Ġrad": 5093,
      "ĠhÃ¸yre": 5094,
      "ktet": 5095,
      "still": 5096,
      "Ġsjef": 5097,
      "ĠÃ¸re": 5098,
      "Ġuttry": 5099,
      "ĠGro": 5100,
      "andel": 5101,
      "Ġforeta": 5102,
      "Ġdvs": 5103,
      "Ġovernatt": 5104,
      "olum": 5105,
      "ĠMidt": 5106,
      "Ġettermiddag": 5107,
      "oster": 5108,
      "veks": 5109,
      "arbeider": 5110,
      "Ġekst": 5111,
      "Ġkroppen": 5112,
      "Ġbyr": 5113,
      "foretak": 5114,
      "Ġmy": 5115,
      "Ġstrateg": 5116,
      "Ġhov": 5117,
      "Ġsenter": 5118,
      "ĠPh": 5119,
      "Ġheile": 5120,
      "Ġ1992": 5121,
      "Ġopps": 5122,
      "urdering": 5123,
      "Ġhud": 5124,
      "Ġlandbruks": 5125,
      "Ġbehandlingen": 5126,
      "ĠSak": 5127,
      "posten": 5128,
      ".\"": 5129,
      "Ġteknologi": 5130,
      "ational": 5131,
      "ĠberÃ¸r": 5132,
      "Ġutel": 5133,
      "Ġstatens": 5134,
      "Ġkapit": 5135,
      "Ġflytte": 5136,
      "vesenet": 5137,
      "AD": 5138,
      "47": 5139,
      "yrer": 5140,
      "oper": 5141,
      "forvalt": 5142,
      "Ġiverks": 5143,
      "ace": 5144,
      "ĠSig": 5145,
      "Ġrepresentanter": 5146,
      "Ġforurens": 5147,
      "Ġsendes": 5148,
      "Ġbenyttet": 5149,
      "ĠfartÃ¸y": 5150,
      "Ġ1998": 5151,
      "Ġfritid": 5152,
      "makt": 5153,
      "ĠFri": 5154,
      "Ġep": 5155,
      "Ġnavnet": 5156,
      "za": 5157,
      "ĠomrÃ¥dene": 5158,
      "ĠfÃ¸rte": 5159,
      "AP": 5160,
      "ĠsÃ¥nn": 5161,
      "ĠNatur": 5162,
      "dyr": 5163,
      "Ġtekst": 5164,
      "Ġselskaper": 5165,
      "iluft": 5166,
      "Ġutby": 5167,
      "Ġsupp": 5168,
      "ilte": 5169,
      "ĠnÃ¦rme": 5170,
      "rettet": 5171,
      "Ã¸konom": 5172,
      "Ġinnh": 5173,
      "Ġsammens": 5174,
      "spÃ¸r": 5175,
      "yen": 5176,
      "Ġpersonlig": 5177,
      "Ġetablere": 5178,
      "ĠMus": 5179,
      "Ġbunn": 5180,
      "ĠforstÃ¥else": 5181,
      "Ã¥p": 5182,
      "Ġbenytte": 5183,
      "ĠlÃ¦ring": 5184,
      "ĠLondon": 5185,
      "ĠpÃ¥p": 5186,
      "usk": 5187,
      "Ġjobbet": 5188,
      "ua": 5189,
      "Ġhil": 5190,
      "Ġfine": 5191,
      "ĠselvfÃ¸lgelig": 5192,
      "Ġvalget": 5193,
      "Ġles": 5194,
      "Ġdiskusjon": 5195,
      "ĠaktÃ¸rer": 5196,
      "ĠSist": 5197,
      "ĠLO": 5198,
      "ĠOla": 5199,
      "Ġband": 5200,
      "ĠFredrik": 5201,
      "Ġco": 5202,
      "slet": 5203,
      "Ġavsnitt": 5204,
      "ĠSK": 5205,
      "Ġrappor": 5206,
      "Ġkong": 5207,
      "venn": 5208,
      "Ġspilte": 5209,
      "holm": 5210,
      "lÃ¥": 5211,
      "Ġmelder": 5212,
      "Ġklubb": 5213,
      "Ġperf": 5214,
      "nett": 5215,
      "ĠsÃ¥kalte": 5216,
      "we": 5217,
      "Ġavfall": 5218,
      "ĠInd": 5219,
      "komst": 5220,
      "ĠStra": 5221,
      "ĠÃ¸kende": 5222,
      "Ġkjempe": 5223,
      "ĠArbeiderpartiet": 5224,
      "elding": 5225,
      "Ġstri": 5226,
      "Ġovenfor": 5227,
      "ĠArbeids": 5228,
      "Ġbill": 5229,
      "Ġrente": 5230,
      "kninger": 5231,
      "ĠNTB": 5232,
      "Ġvisst": 5233,
      "Ġdetalj": 5234,
      "Ġfalt": 5235,
      "Ġhenholdsvis": 5236,
      "Ġstrategi": 5237,
      "Ġenige": 5238,
      "Ġplanlagt": 5239,
      "rafikk": 5240,
      "Ġosv": 5241,
      "ĠutlÃ¸": 5242,
      "acebook": 5243,
      "analy": 5244,
      "ĠFÃ¸rst": 5245,
      "fo": 5246,
      "ĠFre": 5247,
      "fond": 5248,
      "ĠfÃ¦rre": 5249,
      "2015": 5250,
      "Ġberg": 5251,
      "ĠforelÃ¸pig": 5252,
      "Ġ1994": 5253,
      "Ġkron": 5254,
      "ĠDes": 5255,
      "ĠMoss": 5256,
      "Ġ1997": 5257,
      "ada": 5258,
      "ffet": 5259,
      "Ġvedlegg": 5260,
      "Ġforvent": 5261,
      "Ġbeslut": 5262,
      "Ġkvalit": 5263,
      "ĠHvil": 5264,
      "skrav": 5265,
      "Ġarr": 5266,
      "Ġtermin": 5267,
      "ho": 5268,
      "Ġnylig": 5269,
      "ĠutÃ¸": 5270,
      "liggende": 5271,
      "ĠDi": 5272,
      "Ġ46": 5273,
      "engt": 5274,
      "EF": 5275,
      "Ġhelset": 5276,
      "fors": 5277,
      "ĠLiv": 5278,
      "ming": 5279,
      "Ġkreditt": 5280,
      "Ġflest": 5281,
      "Ġfjern": 5282,
      "Ġhardt": 5283,
      "hvert": 5284,
      "elegg": 5285,
      "ĠFo": 5286,
      "Ġstrand": 5287,
      "Ġpapp": 5288,
      "feranse": 5289,
      "ĠPr": 5290,
      "okka": 5291,
      "ĠskjÃ¸nn": 5292,
      "ska": 5293,
      "Ã¸nster": 5294,
      "Ġfysisk": 5295,
      "ĠFolk": 5296,
      "grens": 5297,
      "fi": 5298,
      "Ġeuropeiske": 5299,
      "Ġomtale": 5300,
      "klare": 5301,
      "ĠmedfÃ¸re": 5302,
      "Ġnet": 5303,
      "attet": 5304,
      "ĠRana": 5305,
      "Ġhvilket": 5306,
      "Ġvirksom": 5307,
      "Ġidentif": 5308,
      "Ġparti": 5309,
      "Ġhopp": 5310,
      "Ġrelig": 5311,
      "steder": 5312,
      "ĠmedfÃ¸rer": 5313,
      "Ġnedenfor": 5314,
      "Ġbiler": 5315,
      "Ġrent": 5316,
      "Ġregi": 5317,
      "2014": 5318,
      "Ġforsik": 5319,
      "34": 5320,
      "Ġmm": 5321,
      "Ġdial": 5322,
      "ĠKro": 5323,
      "smessige": 5324,
      "ĠCl": 5325,
      "Ġforand": 5326,
      "Ġgrunner": 5327,
      "Ġfigur": 5328,
      "deler": 5329,
      "IV": 5330,
      "Ġstund": 5331,
      "ĠOL": 5332,
      "visor": 5333,
      "imm": 5334,
      "kel": 5335,
      "Ġeventuell": 5336,
      "klusjon": 5337,
      "ĠundersÃ¸kelser": 5338,
      "ĠDN": 5339,
      "ĠFort": 5340,
      "Ġsystemet": 5341,
      "Ġstab": 5342,
      "sektoren": 5343,
      "ĠskjÃ¸n": 5344,
      "jo": 5345,
      "Ġfordelt": 5346,
      "amb": 5347,
      "Ġtotale": 5348,
      "Ġoversk": 5349,
      "Ġboliger": 5350,
      "Ã¥rs": 5351,
      "Ġpengene": 5352,
      "Ġstabil": 5353,
      "Ġinnk": 5354,
      "ĠnÃ¥vÃ¦rende": 5355,
      "2017": 5356,
      "Ġ1993": 5357,
      "ĠGre": 5358,
      "Ġligg": 5359,
      "lands": 5360,
      "ĠId": 5361,
      "Ġbegrunn": 5362,
      "Ġflyttet": 5363,
      "myndighet": 5364,
      "ĠFag": 5365,
      "ĠFro": 5366,
      "smÃ¥": 5367,
      "Ġbad": 5368,
      "Ġhandel": 5369,
      "31": 5370,
      "Ġreaksjon": 5371,
      "Ġsesongen": 5372,
      "ĠThom": 5373,
      "Ġfelle": 5374,
      "Ġinitiativ": 5375,
      "Ġtyder": 5376,
      "Ġformer": 5377,
      "skapene": 5378,
      "ĠLind": 5379,
      "Ġsnakker": 5380,
      "alia": 5381,
      "Ġutenriks": 5382,
      "MS": 5383,
      "Ġbygges": 5384,
      "Ġrygg": 5385,
      "apt": 5386,
      "ĠCon": 5387,
      "Ġprofesjon": 5388,
      "ĠKanskje": 5389,
      "Ġfro": 5390,
      "2016": 5391,
      "ĠundersÃ¸": 5392,
      "ĠAnders": 5393,
      "veis": 5394,
      "Ġrepresenterer": 5395,
      "ahl": 5396,
      "ĠNOK": 5397,
      "atsen": 5398,
      "Ġkul": 5399,
      "Ġkompet": 5400,
      "ĠLÃ¸": 5401,
      "akere": 5402,
      "IK": 5403,
      "Ġventer": 5404,
      "Ġ65": 5405,
      "Ġeld": 5406,
      "Ġpunktum": 5407,
      "Ġsvart": 5408,
      "ĠkjÃ¸kken": 5409,
      "Ġhalvparten": 5410,
      "nelsen": 5411,
      "Ġalders": 5412,
      "tra": 5413,
      "SE": 5414,
      "Ġgass": 5415,
      "ĠundersÃ¸kelse": 5416,
      "ĠLund": 5417,
      "Ġinternasjonalt": 5418,
      "iel": 5419,
      "Ġdatter": 5420,
      "Ġneppe": 5421,
      "ĠRogaland": 5422,
      "aktig": 5423,
      "hÃ¥nd": 5424,
      "mÃ¥let": 5425,
      "ĠGunnar": 5426,
      "omrÃ¥dene": 5427,
      "Ġlitter": 5428,
      "ĠstÃ¸y": 5429,
      "vante": 5430,
      "Ġlet": 5431,
      "78": 5432,
      "Ġpapir": 5433,
      "Ġufor": 5434,
      "spros": 5435,
      "bard": 5436,
      "Ġforbered": 5437,
      "Ġ1980": 5438,
      "ida": 5439,
      "splanen": 5440,
      "rede": 5441,
      "ammer": 5442,
      "inder": 5443,
      "Ġgrunnleggende": 5444,
      "elÃ¸pet": 5445,
      "omen": 5446,
      "regn": 5447,
      "Ġhindre": 5448,
      "Ġgli": 5449,
      "arden": 5450,
      "ome": 5451,
      "histor": 5452,
      "uk": 5453,
      "givning": 5454,
      "Ġtoppen": 5455,
      "ersoner": 5456,
      "ĠMad": 5457,
      "Ġenhet": 5458,
      "Ġkommentarer": 5459,
      "ĠkjÃ¸pt": 5460,
      "ĠPedersen": 5461,
      "Ġvakt": 5462,
      "Ġekster": 5463,
      "ĠnÃ¦ringsliv": 5464,
      "Ġuken": 5465,
      "Ġmottatt": 5466,
      "Ġ1995": 5467,
      "Ġposisjon": 5468,
      "ĠsÃ¦rskilt": 5469,
      "ĠmÃ¥ter": 5470,
      "Ġstillinger": 5471,
      "henger": 5472,
      "ĠrÃ¸r": 5473,
      "Ġtol": 5474,
      "holdet": 5475,
      "estaur": 5476,
      "ĠkjÃ¸per": 5477,
      "ĠArk": 5478,
      "Ġsnakk": 5479,
      "ĠvÃ¥pen": 5480,
      "Ã¸mm": 5481,
      "Ġforfatter": 5482,
      "ĠSvein": 5483,
      "Ġanbefaler": 5484,
      "Ġoppford": 5485,
      "Ġutfor": 5486,
      "ĠTra": 5487,
      "politikk": 5488,
      "ĠUN": 5489,
      "Ġskulde": 5490,
      "Ġskikkelig": 5491,
      "urtig": 5492,
      "38": 5493,
      "Ġstede": 5494,
      "ĠBed": 5495,
      "Ġrepresentant": 5496,
      "side": 5497,
      "tten": 5498,
      "Ġinternasjonal": 5499,
      "Ġbevisst": 5500,
      "Ġklarte": 5501,
      "ĠSide": 5502,
      "Ġvitenskap": 5503,
      "Ġfjord": 5504,
      "Ġutdann": 5505,
      "Ġopprettet": 5506,
      "Ġ<": 5507,
      "ighetene": 5508,
      "Ġhjelper": 5509,
      "hl": 5510,
      "nene": 5511,
      "Ġfond": 5512,
      "result": 5513,
      "Ġtips": 5514,
      "appar": 5515,
      "snivÃ¥": 5516,
      "tom": 5517,
      "Ġpartene": 5518,
      "Ġende": 5519,
      "byr": 5520,
      "ĠBli": 5521,
      "37": 5522,
      "ĠRob": 5523,
      "Ġhjemmel": 5524,
      "ĠhÃ¸rings": 5525,
      "Ġ1000": 5526,
      "behov": 5527,
      "Ġspar": 5528,
      "pot": 5529,
      "Ġsterkere": 5530,
      "vise": 5531,
      "ĠspÃ¸rre": 5532,
      "Ġbruken": 5533,
      "vide": 5534,
      "ĠAll": 5535,
      "Ġslot": 5536,
      "ĠEid": 5537,
      "ĠLikevel": 5538,
      "Ġtann": 5539,
      "ĠHvorfor": 5540,
      "pon": 5541,
      "Ġaktivt": 5542,
      "ĠtilhÃ¸r": 5543,
      "Ġthat": 5544,
      "ĠRa": 5545,
      "ĠNVE": 5546,
      "ialt": 5547,
      "sko": 5548,
      "Ġkast": 5549,
      "48": 5550,
      "Ġleser": 5551,
      "Ġberedskap": 5552,
      "Ġkommunens": 5553,
      "Ġbestemte": 5554,
      "ĠIng": 5555,
      "frastruktur": 5556,
      "ĠCan": 5557,
      "Ġgrader": 5558,
      "ick": 5559,
      "Ġsatte": 5560,
      "Ġvarm": 5561,
      "Ġansatt": 5562,
      "aden": 5563,
      "ĠBro": 5564,
      "ĠLok": 5565,
      "ish": 5566,
      "Ġbrutt": 5567,
      "ksten": 5568,
      "Ġens": 5569,
      "Ġrespekt": 5570,
      "Ġindik": 5571,
      "Ã¦rlig": 5572,
      "Ġbetaling": 5573,
      "ĠGa": 5574,
      "Ġregnes": 5575,
      "abler": 5576,
      "Ġrevisjon": 5577,
      "verdig": 5578,
      "Ġkalt": 5579,
      "smÃ¸tet": 5580,
      "Ġsykkel": 5581,
      "spiller": 5582,
      "feltet": 5583,
      "ause": 5584,
      "fr": 5585,
      "ĠÃ¸yeb": 5586,
      "Ġpat": 5587,
      "32": 5588,
      "Ġbutikk": 5589,
      "ĠChristian": 5590,
      "Ġkreves": 5591,
      "Ġtrans": 5592,
      "slÃ¸": 5593,
      "barn": 5594,
      "ĠverktÃ¸y": 5595,
      "arm": 5596,
      "Ġdreier": 5597,
      "ards": 5598,
      "ĠNils": 5599,
      "Ġoptim": 5600,
      "ep": 5601,
      "Ġtillatelse": 5602,
      "ĠtÃ¥": 5603,
      "ĠEm": 5604,
      "Ġdeltar": 5605,
      "ekan": 5606,
      "Ġbelast": 5607,
      "Ġinstitutt": 5608,
      "ĠGo": 5609,
      "lam": 5610,
      "Ġoppdatert": 5611,
      "ĠSval": 5612,
      "Ġspare": 5613,
      "Ġumiddel": 5614,
      "2013": 5615,
      "ĠgrÃ¥": 5616,
      "brit": 5617,
      "Ã¡": 5618,
      "Ġhelg": 5619,
      "ĠVM": 5620,
      "Ġnordmenn": 5621,
      "bÃ¸r": 5622,
      "ĠPerson": 5623,
      "Ġbedt": 5624,
      "Ġverdier": 5625,
      "ĠAle": 5626,
      "elov": 5627,
      "Ġfrukt": 5628,
      "Ġpol": 5629,
      "ander": 5630,
      "ĠVÃ¦r": 5631,
      "Ġfortelle": 5632,
      "Ġtrener": 5633,
      "Ġstatus": 5634,
      "Ġregne": 5635,
      "Ġkontra": 5636,
      "stÃ¥tt": 5637,
      "Ġmv": 5638,
      "ĠmÃ¸tte": 5639,
      "Ġforsikring": 5640,
      "urte": 5641,
      "Ġeksport": 5642,
      "jekking": 5643,
      "Ġtilfredsstill": 5644,
      "ĠovervÃ¥": 5645,
      "Ġtrykk": 5646,
      "ĠNoreg": 5647,
      "ute": 5648,
      "Ġangrep": 5649,
      "ĠoppgÃ¥ver": 5650,
      "Ġstatsminister": 5651,
      "Ġbrudd": 5652,
      "bry": 5653,
      "Ġget": 5654,
      "Ġblei": 5655,
      "Ġ600": 5656,
      "Ġtemperatur": 5657,
      "ĠPaul": 5658,
      "ĠAkers": 5659,
      "Ġvurderer": 5660,
      "vernet": 5661,
      "Ġdesign": 5662,
      "Ġsan": 5663,
      "Ġgrunnlaget": 5664,
      "Ġdobbelt": 5665,
      "planen": 5666,
      "atnet": 5667,
      "Ġpeker": 5668,
      "ementer": 5669,
      "bestemm": 5670,
      "che": 5671,
      "ona": 5672,
      "program": 5673,
      "ifik": 5674,
      "Ġbehandles": 5675,
      "Ġvinner": 5676,
      "voll": 5677,
      "Ġglob": 5678,
      "Ġpaa": 5679,
      "Ġ07": 5680,
      "ĠAndersen": 5681,
      "Ġabsolutt": 5682,
      "zz": 5683,
      "Ġ1996": 5684,
      "Ġ47": 5685,
      "Ġbibliote": 5686,
      "Ġfulgt": 5687,
      "ĠKa": 5688,
      "Ġlens": 5689,
      "ĠMos": 5690,
      "2012": 5691,
      "Ġbeskriv": 5692,
      "Ġenkle": 5693,
      "ius": 5694,
      "ĠEks": 5695,
      "reis": 5696,
      "Ġryd": 5697,
      "ĠLarsen": 5698,
      "Ġspis": 5699,
      "Ġkilometer": 5700,
      "ĠOn": 5701,
      "Ġforven": 5702,
      "ues": 5703,
      "Ġuk": 5704,
      "ĠAften": 5705,
      "Ġhevder": 5706,
      "Ġrene": 5707,
      "kehus": 5708,
      "Ġklage": 5709,
      "ĠHell": 5710,
      "Ġutkast": 5711,
      "ara": 5712,
      "Ġforny": 5713,
      "ĠpÃ¥virke": 5714,
      "own": 5715,
      "atiske": 5716,
      "Ġaksjon": 5717,
      "jeller": 5718,
      "Ġforutsetning": 5719,
      "Ġskule": 5720,
      "Ġegnet": 5721,
      "ulent": 5722,
      "ĠUniversitetet": 5723,
      "Ġuttalelse": 5724,
      "Ġarter": 5725,
      "edrag": 5726,
      "ĠEli": 5727,
      "Ġkrist": 5728,
      "Ġvanligvis": 5729,
      "styre": 5730,
      "strekning": 5731,
      "Ġspilt": 5732,
      "PP": 5733,
      "Ġidet": 5734,
      "ĠHver": 5735,
      "Ġtyp": 5736,
      "Ġunderstreker": 5737,
      "Ġaksep": 5738,
      "Ġframover": 5739,
      "fang": 5740,
      "ĠFÃ¸l": 5741,
      "Ġsuks": 5742,
      "iff": 5743,
      "Ġklokken": 5744,
      "Ġorien": 5745,
      "vard": 5746,
      "Ġkvelden": 5747,
      "ĠMol": 5748,
      "srÃ¥d": 5749,
      "Ġgreit": 5750,
      "jeld": 5751,
      "Ġ1991": 5752,
      "ura": 5753,
      "ilsynet": 5754,
      "terer": 5755,
      "Ġkommunal": 5756,
      "vekt": 5757,
      "Ġservice": 5758,
      "ld": 5759,
      "Ġevalu": 5760,
      "Ã¸rr": 5761,
      "46": 5762,
      "ĠJens": 5763,
      "blad": 5764,
      "Ġfunn": 5765,
      "ĠÃ¼": 5766,
      "Ġtunn": 5767,
      "ĠstrÃ¥": 5768,
      "ĠbesÃ¸": 5769,
      "Ġplanlegging": 5770,
      "smann": 5771,
      "beg": 5772,
      "Ġfremm": 5773,
      "ringe": 5774,
      "ival": 5775,
      "ums": 5776,
      "Ġmerket": 5777,
      "Ġmanglende": 5778,
      "enen": 5779,
      "Ġil": 5780,
      "Ġstortings": 5781,
      "Ġfrist": 5782,
      "Ã¸ter": 5783,
      "Ġsukker": 5784,
      "Ġutenlandske": 5785,
      "yp": 5786,
      "ĠJes": 5787,
      "ance": 5788,
      "Ġfaglige": 5789,
      "Ġinteressant": 5790,
      "ĠMagn": 5791,
      "ĠStrand": 5792,
      "Ġtider": 5793,
      "ĠAf": 5794,
      "Ġbestemmelsen": 5795,
      "Foto": 5796,
      "Ġevne": 5797,
      "49": 5798,
      "Ġkropp": 5799,
      "ĠJohann": 5800,
      "Ġ?": 5801,
      "dem": 5802,
      "ĠFrankrike": 5803,
      "Ġrelevant": 5804,
      "ĠKle": 5805,
      "Ġdele": 5806,
      "uta": 5807,
      "Ġhodet": 5808,
      "ĠGran": 5809,
      "Ġblev": 5810,
      "byen": 5811,
      "Ġstuder": 5812,
      "ama": 5813,
      "Ġbrukere": 5814,
      "ĠKor": 5815,
      "Ġkorre": 5816,
      "Ġvidare": 5817,
      "Ġdens": 5818,
      "ng": 5819,
      "ited": 5820,
      "rel": 5821,
      "ĠnÃ¦rmeste": 5822,
      "Ġansl": 5823,
      "Ġdrikke": 5824,
      "Ġvent": 5825,
      "talte": 5826,
      "ĠstÃ¸tter": 5827,
      "EG": 5828,
      "blemer": 5829,
      "Ġredeg": 5830,
      "Ġdeltok": 5831,
      "ĠHed": 5832,
      "Ġprosessen": 5833,
      "akultet": 5834,
      "Ġmyndighetene": 5835,
      "Ġbetrakt": 5836,
      "elemark": 5837,
      "Ġstilt": 5838,
      "ĠNilsen": 5839,
      "stiller": 5840,
      "ssy": 5841,
      "ategori": 5842,
      "Ġheld": 5843,
      "fjorden": 5844,
      "ĠSkog": 5845,
      "Ġbegynne": 5846,
      "Ġinntrykk": 5847,
      "Ġkravene": 5848,
      "lf": 5849,
      "Ġsein": 5850,
      "Ġkonvensjon": 5851,
      "Ġdrifts": 5852,
      "Ġhittil": 5853,
      "Ġdistri": 5854,
      "Ġrer": 5855,
      "Ġkonsekvens": 5856,
      "istiske": 5857,
      "ĠStortingets": 5858,
      "oer": 5859,
      "ĠAb": 5860,
      "Ġforeldrene": 5861,
      "bum": 5862,
      "Ġindre": 5863,
      "ĠJac": 5864,
      "retning": 5865,
      "lysninger": 5866,
      "ll": 5867,
      "ĠGar": 5868,
      "Ġtypen": 5869,
      "sprogram": 5870,
      "terier": 5871,
      "asjem": 5872,
      "Ġsene": 5873,
      "Ġinstitusjoner": 5874,
      "bre": 5875,
      "Ġpen": 5876,
      "Ġjenter": 5877,
      "Ġaner": 5878,
      "Ġklubben": 5879,
      "ĠÃ¥pner": 5880,
      "Ġasyl": 5881,
      "ĠnÃ¦ringslivet": 5882,
      "dalen": 5883,
      "Ġsolid": 5884,
      "Ġsender": 5885,
      "ĠMÃ¥": 5886,
      "Ġill": 5887,
      "ĠlÃ¦rere": 5888,
      "Ġulov": 5889,
      "agraf": 5890,
      "prosjekt": 5891,
      "cc": 5892,
      "ĠAs": 5893,
      "Ġkontroller": 5894,
      "OD": 5895,
      "Ġgift": 5896,
      "penger": 5897,
      "Ġkreft": 5898,
      "2011": 5899,
      "ĠDagbladet": 5900,
      "ĠPark": 5901,
      "Ġvirksomheter": 5902,
      "Ġsitte": 5903,
      "skoler": 5904,
      "ĠinnfÃ¸rt": 5905,
      "ellene": 5906,
      "stim": 5907,
      "ĠHav": 5908,
      "han": 5909,
      "ĠVI": 5910,
      "Ġantas": 5911,
      "Ġmulige": 5912,
      "Ġoblig": 5913,
      "britann": 5914,
      "Ġandelen": 5915,
      "Ġkvartal": 5916,
      "ileder": 5917,
      "Ġutdannings": 5918,
      "Ġfilmen": 5919,
      "Ġfjerne": 5920,
      "Ġhensiktsmessig": 5921,
      "Ġstyring": 5922,
      "65": 5923,
      "skjer": 5924,
      "Ġavtaler": 5925,
      "Ġregnet": 5926,
      "Ġmistet": 5927,
      "Ġavsluttet": 5928,
      "ora": 5929,
      "Ġanalyse": 5930,
      "forskning": 5931,
      "Ġdr": 5932,
      "ondet": 5933,
      "Ġnettet": 5934,
      "fÃ¸d": 5935,
      "ĠSunn": 5936,
      "slutning": 5937,
      "Ġstasjon": 5938,
      "Ġveiledning": 5939,
      "Ġgjekk": 5940,
      "Ġtaler": 5941,
      "Ġkommende": 5942,
      "Ġjfr": 5943,
      "ĠSvalbard": 5944,
      "ĠÃĺk": 5945,
      "akten": 5946,
      "www": 5947,
      "AND": 5948,
      "ikler": 5949,
      "seth": 5950,
      "ĠGrÃ¸n": 5951,
      "ansier": 5952,
      "Ġbeslutning": 5953,
      "helse": 5954,
      "ĠNOR": 5955,
      "Ġ$": 5956,
      "Ġforster": 5957,
      "ĠSim": 5958,
      "ĠHÃ¸g": 5959,
      "Ġtyske": 5960,
      "Ġpsykisk": 5961,
      "Ġinvesteringer": 5962,
      "Vi": 5963,
      "Ġreag": 5964,
      "nytt": 5965,
      "Ġstim": 5966,
      "ĠNT": 5967,
      "ĠnÃ¦rmest": 5968,
      "vilkÃ¥r": 5969,
      "Ġutelu": 5970,
      "Ġgrund": 5971,
      "ĠTore": 5972,
      "lÃ¸s": 5973,
      "hal": 5974,
      "erg": 5975,
      "ĠfÃ¸res": 5976,
      "ĠFÃ¥": 5977,
      "Ġdialog": 5978,
      "Ġsamtykke": 5979,
      "UT": 5980,
      "byrÃ¥": 5981,
      "ĠStore": 5982,
      "Ġlog": 5983,
      "Ġvurderinger": 5984,
      "Ġnordiske": 5985,
      "Ġmamma": 5986,
      "ĠFram": 5987,
      "ents": 5988,
      "Ġfug": 5989,
      "ĠTur": 5990,
      "ĠNye": 5991,
      "ĠforstÃ¥r": 5992,
      "ĠSi": 5993,
      "Ġsmak": 5994,
      "vig": 5995,
      "Ġforretnings": 5996,
      "Ġspesiell": 5997,
      "Ġvegne": 5998,
      "Ġcom": 5999,
      "Ġopphe": 6000,
      "Ġtolk": 6001,
      "Ġsolgt": 6002,
      "OTO": 6003,
      "ĠMat": 6004,
      "Ġrelevante": 6005,
      "legge": 6006,
      "poeng": 6007,
      "ĠÃĺv": 6008,
      "Ġresultatene": 6009,
      "ĠAV": 6010,
      "Jeg": 6011,
      "ĠtilnÃ¦r": 6012,
      "Ġhjerte": 6013,
      "nummer": 6014,
      "sund": 6015,
      "Ġdisku": 6016,
      "lia": 6017,
      "ĠgÃ¥rd": 6018,
      "stituttet": 6019,
      "Ġmidlertidig": 6020,
      "Ġdog": 6021,
      "stede": 6022,
      "Ġz": 6023,
      "Ġfamili": 6024,
      "Ġbeskrevet": 6025,
      "Ġarranger": 6026,
      "Ġinvest": 6027,
      "arkedet": 6028,
      "mester": 6029,
      "Ġmateriale": 6030,
      "gjorde": 6031,
      "ituasjonen": 6032,
      "anke": 6033,
      "EC": 6034,
      "ĠStorbritann": 6035,
      "Ġ42": 6036,
      "Ġnedgang": 6037,
      "ĠSal": 6038,
      "Ġbesky": 6039,
      "adem": 6040,
      "Ġfavor": 6041,
      "saker": 6042,
      "Ġ06": 6043,
      "isteret": 6044,
      "Ġminne": 6045,
      "ammen": 6046,
      "Ġordet": 6047,
      "Ġforutsetter": 6048,
      "Ġoffis": 6049,
      "Ġrefle": 6050,
      "ĠBygg": 6051,
      "Ġfriluft": 6052,
      "ingens": 6053,
      "Ġfirma": 6054,
      "Ġdyre": 6055,
      "lager": 6056,
      "Ġvannet": 6057,
      "Ġskre": 6058,
      "etts": 6059,
      "Ġvegen": 6060,
      "Ġhvit": 6061,
      "Ġinteressert": 6062,
      "ĠBestemm": 6063,
      "edes": 6064,
      "Ġtilfredsstillende": 6065,
      "Ġdebatten": 6066,
      "stall": 6067,
      "Ġsnakket": 6068,
      "Ġadvokat": 6069,
      "pres": 6070,
      "ansert": 6071,
      "Ġrekl": 6072,
      "Ġdekker": 6073,
      "Ġetc": 6074,
      "The": 6075,
      "role": 6076,
      "Ġfullstendig": 6077,
      "rus": 6078,
      "ĠCarl": 6079,
      "jent": 6080,
      "alinger": 6081,
      "ĠFle": 6082,
      "forslag": 6083,
      "Ġverken": 6084,
      "ĠhÃ¸rt": 6085,
      "Ġfarge": 6086,
      "ĠhÃ¸yde": 6087,
      "ĠforegÃ¥r": 6088,
      "vde": 6089,
      "ĠkjÃ¸nn": 6090,
      "Ġbygging": 6091,
      "ĠPlan": 6092,
      "AK": 6093,
      "ĠFjord": 6094,
      "ĠOff": 6095,
      "Ġomsetning": 6096,
      "Ã¸nad": 6097,
      "Ġ800": 6098,
      "Ġsymp": 6099,
      "Ġspise": 6100,
      "bjÃ¸rn": 6101,
      "Ġhandels": 6102,
      "ĠÃ¸r": 6103,
      "ĠÃĺstfold": 6104,
      "Ġ49": 6105,
      "Ġforklarer": 6106,
      "bruker": 6107,
      "ĠStein": 6108,
      "Ġalvorlige": 6109,
      "ĠJensen": 6110,
      "Ġproblemet": 6111,
      "Ġpreget": 6112,
      "ksib": 6113,
      "Ġekstrem": 6114,
      "Ġstreng": 6115,
      "Ġsuper": 6116,
      "iteten": 6117,
      "Ġfremover": 6118,
      "Ġjub": 6119,
      "aliteten": 6120,
      "Ġlevert": 6121,
      "Ã¥det": 6122,
      "ipend": 6123,
      "arbeidere": 6124,
      "ĠGam": 6125,
      "kkene": 6126,
      "44": 6127,
      "ĠbÃ¸ker": 6128,
      "rop": 6129,
      "Ġuen": 6130,
      "Ġkunn": 6131,
      "Ġap": 6132,
      "Ġanskaff": 6133,
      "2019": 6134,
      "Ġklim": 6135,
      "Ġsamle": 6136,
      "Ġlun": 6137,
      "Ġlak": 6138,
      "Ġson": 6139,
      "ĠoverfÃ¸ring": 6140,
      "Ġtilfreds": 6141,
      "Ġhenven": 6142,
      "Ġdiv": 6143,
      "Ġallmenn": 6144,
      "Ġvisste": 6145,
      "Ġkamer": 6146,
      "sdepartementet": 6147,
      "smidler": 6148,
      "ski": 6149,
      "Ġfordeling": 6150,
      "ĠYork": 6151,
      "prp": 6152,
      "ĠBla": 6153,
      "Ã¸lv": 6154,
      "ĠDrammen": 6155,
      "ĠSvar": 6156,
      "elling": 6157,
      "Ġversjon": 6158,
      "Ġplassert": 6159,
      "Ġforsker": 6160,
      "Ġturist": 6161,
      "In": 6162,
      "Ġdekket": 6163,
      "ĠetterspÃ¸r": 6164,
      "lie": 6165,
      "SD": 6166,
      "Ġbetalt": 6167,
      "direktoratet": 6168,
      "skil": 6169,
      "systemet": 6170,
      "Ġbestemmelsene": 6171,
      "inntekter": 6172,
      "ravet": 6173,
      "ningsloven": 6174,
      "ape": 6175,
      "strid": 6176,
      "Ġdagene": 6177,
      "Ġtegn": 6178,
      "Ġnegative": 6179,
      "ĠTidligere": 6180,
      "ativer": 6181,
      "ĠEnk": 6182,
      "Ġprp": 6183,
      "oft": 6184,
      "Ġforvaltnings": 6185,
      "Ġradio": 6186,
      "Ġam": 6187,
      "Ġflotte": 6188,
      "Ġdetaljer": 6189,
      "ĠAnn": 6190,
      "Ġpraktiske": 6191,
      "gning": 6192,
      "Ġrammer": 6193,
      "Ġhttp": 6194,
      "rika": 6195,
      "Ġfore": 6196,
      "Ġfrom": 6197,
      "ĠRestaur": 6198,
      "pren": 6199,
      "Ġerkl": 6200,
      "EM": 6201,
      "Ġtrinn": 6202,
      "ĠNÃ¦rings": 6203,
      "Ġhentet": 6204,
      "Ġmeiner": 6205,
      "2018": 6206,
      "UR": 6207,
      "ĠpopulÃ¦re": 6208,
      "Ġfinansiering": 6209,
      "samfunn": 6210,
      "Ġmo": 6211,
      "tur": 6212,
      "Ġed": 6213,
      "Ġstig": 6214,
      "Ġreal": 6215,
      "Ġulik": 6216,
      "Ġkryss": 6217,
      "holdes": 6218,
      "virke": 6219,
      "Ġsaksbehandling": 6220,
      "Ġstilles": 6221,
      "ĠhÃ¸yeste": 6222,
      "ĠLy": 6223,
      "ĠMy": 6224,
      "eleder": 6225,
      "terte": 6226,
      "Ġfremtiden": 6227,
      "Ġdokumentasjon": 6228,
      "ĠGeir": 6229,
      "sprÃ¥k": 6230,
      "ĠUngd": 6231,
      "utstyr": 6232,
      "Ġfrisk": 6233,
      "ĠBegge": 6234,
      "Ġsand": 6235,
      "uen": 6236,
      "ĠOppd": 6237,
      "sling": 6238,
      "Ġsakene": 6239,
      "Ġjournali": 6240,
      "Ġivareta": 6241,
      "Ġpappa": 6242,
      "iar": 6243,
      "Ġmaskin": 6244,
      "ĠHaugesund": 6245,
      "alene": 6246,
      "Ġprofil": 6247,
      "Ġavstand": 6248,
      "rd": 6249,
      "ĠFacebook": 6250,
      "Ġborger": 6251,
      "Ġinnskudd": 6252,
      "Ġtrekker": 6253,
      "tekn": 6254,
      "Ġmiddel": 6255,
      "Ġantallet": 6256,
      "direktÃ¸r": 6257,
      "Ġfolketrygd": 6258,
      "Ġkop": 6259,
      "Ġdef": 6260,
      "Ġsvare": 6261,
      "ĠlÃ¥ne": 6262,
      "ĠÃ¸ver": 6263,
      "handel": 6264,
      "Ġsnar": 6265,
      "Ġparkering": 6266,
      "Ġkostnadene": 6267,
      "ĠkjÃ¸tt": 6268,
      "Ġigang": 6269,
      "UL": 6270,
      "ĠNAV": 6271,
      "Ġselger": 6272,
      "Ġsamling": 6273,
      "ĠBÃ¸": 6274,
      "Ġjordbruks": 6275,
      "Ġopplys": 6276,
      "ĠKongen": 6277,
      "Ġling": 6278,
      "Ġmiddag": 6279,
      "Ġbruks": 6280,
      "hen": 6281,
      "Ġomtalt": 6282,
      "Ġjurid": 6283,
      "ĠVestfold": 6284,
      "Ġmotstand": 6285,
      "posisjonen": 6286,
      "ĠFÃ¸rste": 6287,
      "Ġforebygg": 6288,
      "Ġdoll": 6289,
      "cy": 6290,
      "Ġmangfold": 6291,
      "ðŁ": 6292,
      "spar": 6293,
      "ĠEngland": 6294,
      "Ġoppleve": 6295,
      "Ġholdes": 6296,
      "ĠEinar": 6297,
      "Ġtilbudet": 6298,
      "ola": 6299,
      "basert": 6300,
      "Ġ250": 6301,
      "bolig": 6302,
      "jul": 6303,
      "Ġskil": 6304,
      "ĠAkershus": 6305,
      "Ġutstrekning": 6306,
      "vendig": 6307,
      "ikkelen": 6308,
      "Ġsies": 6309,
      "Ġhelgen": 6310,
      "Ġwww": 6311,
      "ĠsÃ¸knaden": 6312,
      "Ġlandene": 6313,
      "ĠVin": 6314,
      "Ġ85": 6315,
      "Ġlaste": 6316,
      "ĠÃ¥rlige": 6317,
      "skritt": 6318,
      "flyt": 6319,
      "sats": 6320,
      "Ġdepartementets": 6321,
      "Ġsammenlignet": 6322,
      "Ġ1970": 6323,
      "ffekter": 6324,
      "Ġforskrifter": 6325,
      "ĠÃ¥pent": 6326,
      "prisen": 6327,
      "Ġnyhet": 6328,
      "Ġaksje": 6329,
      "Ġinternett": 6330,
      "ior": 6331,
      "formÃ¥l": 6332,
      "Ġtiltaket": 6333,
      "Ġrekrutter": 6334,
      "Ġkommenter": 6335,
      "ĠoppstÃ¥r": 6336,
      "Ġsert": 6337,
      "pan": 6338,
      "Ġskille": 6339,
      "Ġbot": 6340,
      "EST": 6341,
      "Ġnasjonalt": 6342,
      "Ġopptak": 6343,
      "ĠSÃ¸": 6344,
      "Ġbestemmelse": 6345,
      "Ġsalt": 6346,
      "Ġserver": 6347,
      "Ġtilstand": 6348,
      "ĠVal": 6349,
      "vold": 6350,
      "ĠmÃ¥le": 6351,
      "Ġir": 6352,
      "Ġkoster": 6353,
      "ĠkjÃ¦rlighet": 6354,
      "Ġbetydelige": 6355,
      "Ġmedier": 6356,
      "esen": 6357,
      "Ġspillet": 6358,
      "ĠÃ¸l": 6359,
      "habil": 6360,
      "Ġlitteratur": 6361,
      "Ġgrunnen": 6362,
      "ĠDeretter": 6363,
      "ĠHeg": 6364,
      "ĠKina": 6365,
      "ĠfremgÃ¥r": 6366,
      "Ġettersom": 6367,
      "ĠAntall": 6368,
      "hild": 6369,
      "Ġveier": 6370,
      "kamp": 6371,
      "Ġbegynnelsen": 6372,
      "ĠMorten": 6373,
      "shemm": 6374,
      "Ġanlegget": 6375,
      "ĠSan": 6376,
      "ĠÂ§Â§": 6377,
      "feransen": 6378,
      "Ġingenting": 6379,
      "vo": 6380,
      "Ġhend": 6381,
      "Ġbemer": 6382,
      "ĠSpill": 6383,
      "amin": 6384,
      "uligheter": 6385,
      "ĠhÃ¥r": 6386,
      "Ġminimum": 6387,
      "ĠFisker": 6388,
      "Ġstraks": 6389,
      "ii": 6390,
      "Ġdemon": 6391,
      "ĠHov": 6392,
      "ĠStorbritannia": 6393,
      "Ġket": 6394,
      "Ġimport": 6395,
      "atikk": 6396,
      "ĠMor": 6397,
      "Ġkategor": 6398,
      "ĠHarstad": 6399,
      "komiteen": 6400,
      "ĠOrgan": 6401,
      "Ġmaksim": 6402,
      "avtale": 6403,
      "Ġmelde": 6404,
      "ĠStyret": 6405,
      "ÃĺR": 6406,
      "41": 6407,
      "88": 6408,
      "ssystemet": 6409,
      "Ġhente": 6410,
      "isp": 6411,
      "spris": 6412,
      "Ġsens": 6413,
      "Ġnark": 6414,
      "Ã¸tte": 6415,
      "ĠSj": 6416,
      "Ġopprettholde": 6417,
      "2010": 6418,
      "ĠRoms": 6419,
      "utgifter": 6420,
      "42": 6421,
      "imensjon": 6422,
      "Ġstudentene": 6423,
      "ĠMarit": 6424,
      "prosjektet": 6425,
      "ĠbÃ¦rekraft": 6426,
      "Ġanvendelse": 6427,
      "ĠHolm": 6428,
      "Ġtilpasset": 6429,
      "ĠLyn": 6430,
      "ĠBarn": 6431,
      "ĠDav": 6432,
      "foss": 6433,
      "iken": 6434,
      "--": 6435,
      "TER": 6436,
      "Ġvedtaket": 6437,
      "alm": 6438,
      "ĠUnivers": 6439,
      "Ġbeskytt": 6440,
      "Ġhyggelig": 6441,
      "Ġrein": 6442,
      "retten": 6443,
      "Ġliste": 6444,
      "Ġsamfunns": 6445,
      "Ġhind": 6446,
      "Ġgenerell": 6447,
      "Ġspre": 6448,
      "arp": 6449,
      "grunnlag": 6450,
      "istrer": 6451,
      "ĠIL": 6452,
      "ĠUi": 6453,
      "Ġhandle": 6454,
      "Ġdekning": 6455,
      "aug": 6456,
      "Ġrasjon": 6457,
      "ĠTelemark": 6458,
      "ĠKommunen": 6459,
      "ĠordinÃ¦re": 6460,
      "ĠvedrÃ¸rende": 6461,
      "sbruk": 6462,
      "Ġdeltakelse": 6463,
      "ydro": 6464,
      "Ġinfrastruktur": 6465,
      "Ġavde": 6466,
      "ĠAlf": 6467,
      "Ġreduseres": 6468,
      "legare": 6469,
      "Ġeksempler": 6470,
      "An": 6471,
      "Ġheldig": 6472,
      "ĠutfÃ¸re": 6473,
      "Ġansikt": 6474,
      "rykk": 6475,
      "ikal": 6476,
      "Ġsamtlige": 6477,
      "sere": 6478,
      "Ġpassasjer": 6479,
      "Ġpedagog": 6480,
      "Ġport": 6481,
      "ĠÃĺr": 6482,
      "ternativer": 6483,
      "Ġhovud": 6484,
      "ĠBok": 6485,
      "Ġ67": 6486,
      "Ġanvend": 6487,
      "Ġaksjer": 6488,
      "Ġcon": 6489,
      "bes": 6490,
      "95": 6491,
      "Ġoverrask": 6492,
      "Ġstatistikk": 6493,
      "Ġ1989": 6494,
      "Ġkonkluder": 6495,
      "ferdig": 6496,
      "NING": 6497,
      "Ġumulig": 6498,
      "Ġvill": 6499,
      "Ġproduksjonen": 6500,
      "Ġunivers": 6501,
      "ĠundersÃ¸kelsen": 6502,
      "Ġinnholdet": 6503,
      "ĠsÃ¸kt": 6504,
      "ĠinnrÃ¸": 6505,
      "Ġdrept": 6506,
      "ĠSalt": 6507,
      "ĠTerje": 6508,
      "ĠSP": 6509,
      "Ġbasis": 6510,
      "Ġkonstru": 6511,
      "Ġglass": 6512,
      "kurs": 6513,
      "arked": 6514,
      "Ġfortalte": 6515,
      "ĠPR": 6516,
      "istene": 6517,
      "Ġtilsier": 6518,
      "ĠEsp": 6519,
      "Ġvern": 6520,
      "Ġanner": 6521,
      "ira": 6522,
      "ĠkjÃ¸rer": 6523,
      "Ġkamper": 6524,
      "Ġkritikk": 6525,
      "represent": 6526,
      "ĠTÃ¸nsberg": 6527,
      "85": 6528,
      "Ġbanen": 6529,
      "Ġhemm": 6530,
      "ĠMod": 6531,
      "ĠIsra": 6532,
      "otball": 6533,
      "gel": 6534,
      "gjÃ¸res": 6535,
      "Ġvinteren": 6536,
      "ĠstÃ¥tt": 6537,
      "ĠParis": 6538,
      "Ġ43": 6539,
      "ĠsjÃ¸en": 6540,
      "ministrasjon": 6541,
      "kser": 6542,
      "Ġmeldt": 6543,
      "Ġnyttig": 6544,
      "ĠgjennomgÃ¥": 6545,
      "Ġhushold": 6546,
      "Ġetablering": 6547,
      "Ġledelsen": 6548,
      "iseringen": 6549,
      "Ġterror": 6550,
      "Ġfleksib": 6551,
      "forsvar": 6552,
      "Ġledet": 6553,
      "spor": 6554,
      "ĠSund": 6555,
      "utselig": 6556,
      "ĠSogn": 6557,
      "Ġnede": 6558,
      "ĠLandbruks": 6559,
      "ĠSil": 6560,
      "Ġinntekts": 6561,
      "Ġsur": 6562,
      "stasjon": 6563,
      "ĠVan": 6564,
      "Ġinnan": 6565,
      "kapital": 6566,
      "kontor": 6567,
      "Ġbedriften": 6568,
      "ennelse": 6569,
      "grunnlaget": 6570,
      "Ar": 6571,
      "Ġklin": 6572,
      "ĠMÃ¥let": 6573,
      "Ġvekk": 6574,
      "fÃ¸rsel": 6575,
      "ulen": 6576,
      "vart": 6577,
      "bro": 6578,
      "litt": 6579,
      "Ġinnbyggere": 6580,
      "industrien": 6581,
      "Ġvarierer": 6582,
      "Ġbehandle": 6583,
      "Ġenstemm": 6584,
      "ti": 6585,
      "Ġdato": 6586,
      "Ġmere": 6587,
      "Ġlot": 6588,
      "Ġlykkes": 6589,
      "Ġheilt": 6590,
      "ĠklÃ¦r": 6591,
      "Ġbefolkning": 6592,
      "kontoret": 6593,
      "Ġsamband": 6594,
      "Ġutgiftene": 6595,
      "ĠJustis": 6596,
      "Ġ41": 6597,
      "ĠkjÃ¸retÃ¸y": 6598,
      "helset": 6599,
      "ĠHelg": 6600,
      "ĠFrp": 6601,
      "Ġgjest": 6602,
      "Ġpenge": 6603,
      "Ġpersonell": 6604,
      "Ġkos": 6605,
      "elske": 6606,
      "Ġutvidet": 6607,
      "ĠGra": 6608,
      "Ġaktive": 6609,
      "informasjon": 6610,
      "-)": 6611,
      "politikken": 6612,
      "oget": 6613,
      "ĠSlike": 6614,
      "ĠNoe": 6615,
      "Ġgeograf": 6616,
      "ĠCO": 6617,
      "last": 6618,
      "arter": 6619,
      "ĠnÃ¸ye": 6620,
      "Ġmedlemmene": 6621,
      "aser": 6622,
      "ĠEllers": 6623,
      "spunktet": 6624,
      "alk": 6625,
      "Ġsynlig": 6626,
      "Ġterreng": 6627,
      "Ġvilde": 6628,
      "Ġgrenser": 6629,
      "aner": 6630,
      "Ġengasjem": 6631,
      "Ġnettverk": 6632,
      "Ġneder": 6633,
      "bygd": 6634,
      "Ã¥re": 6635,
      "oller": 6636,
      "Ġarbeidslivet": 6637,
      "Ġsalgs": 6638,
      "Al": 6639,
      "Ġinnom": 6640,
      "PS": 6641,
      "Ġpoli": 6642,
      "Ġoppmerksomhet": 6643,
      "Ġinkluderer": 6644,
      "Ġ56": 6645,
      "Ġbudsjettet": 6646,
      "Ġmi": 6647,
      "Ġvindu": 6648,
      "Ġslekt": 6649,
      "ĠQu": 6650,
      "ĠRep": 6651,
      "organisasjon": 6652,
      "Ġfordeler": 6653,
      "Ġprofessor": 6654,
      "bakk": 6655,
      "dÃ¸": 6656,
      "meldt": 6657,
      "Ġlikhet": 6658,
      "Ġbestemme": 6659,
      "stÃ¸tte": 6660,
      "oritet": 6661,
      "Ã¸t": 6662,
      "Ġvedtok": 6663,
      "isjoner": 6664,
      "Ġtallet": 6665,
      "Ġgjaldt": 6666,
      "hÃ¸rer": 6667,
      "anken": 6668,
      "Ġforsvarlig": 6669,
      "ĠhÃ¸ve": 6670,
      "vester": 6671,
      "vÃ¥g": 6672,
      "sre": 6673,
      "ĠLuft": 6674,
      "ĠdÃ¸gn": 6675,
      "sekretÃ¦r": 6676,
      "Ġretur": 6677,
      "ĠPe": 6678,
      "Ġfeltet": 6679,
      "Ġdeleg": 6680,
      "Ġregionen": 6681,
      "Ġvideo": 6682,
      "kjente": 6683,
      "ĠdÃ¸r": 6684,
      "2009": 6685,
      "Ġbetaler": 6686,
      "ikro": 6687,
      "HO": 6688,
      "ĠSandnes": 6689,
      "Ġsuksess": 6690,
      "ain": 6691,
      "TV": 6692,
      "Ġsmer": 6693,
      "Hot": 6694,
      "messige": 6695,
      "Ġlevere": 6696,
      "Ġblomster": 6697,
      "hund": 6698,
      "ĠPet": 6699,
      "hald": 6700,
      "Ġregelverk": 6701,
      "ĠRad": 6702,
      "ĠNM": 6703,
      "ĠThomas": 6704,
      "drift": 6705,
      "smiljÃ¸": 6706,
      "Ġhjert": 6707,
      "bÃ¦r": 6708,
      "ĠHord": 6709,
      "ĠSyn": 6710,
      "Ġtrukket": 6711,
      "Ġuka": 6712,
      "Ġtenkte": 6713,
      "Ġ05": 6714,
      "nok": 6715,
      "spil": 6716,
      "Ġthis": 6717,
      "meter": 6718,
      "ĠValg": 6719,
      "Ġjevn": 6720,
      "osjon": 6721,
      "ĠMet": 6722,
      "somme": 6723,
      "forslaget": 6724,
      "dy": 6725,
      "setningen": 6726,
      "Ġeksamen": 6727,
      "erv": 6728,
      "Ġorganisasjonen": 6729,
      "ĠoppgjÃ¸r": 6730,
      "Ġfrykt": 6731,
      "Ġprinsipp": 6732,
      "useum": 6733,
      "Ġtend": 6734,
      "Ġperm": 6735,
      "esenter": 6736,
      "Ġsjelden": 6737,
      "Ġpersonlige": 6738,
      "Ġkna": 6739,
      "yndig": 6740,
      "ĠmilitÃ¦r": 6741,
      "Ġtverr": 6742,
      "lement": 6743,
      "Ġorganisert": 6744,
      "Ġfarger": 6745,
      "Ġredd": 6746,
      "Ġsaka": 6747,
      "ĠDagens": 6748,
      "Ġkaffe": 6749,
      "ĠKvinn": 6750,
      "Ġutredning": 6751,
      "foreningen": 6752,
      "Ġkalles": 6753,
      "krav": 6754,
      "Ġdanske": 6755,
      "Ġfabri": 6756,
      "sr": 6757,
      "Ġfla": 6758,
      "Ġmetoder": 6759,
      "dra": 6760,
      "Ġfrivillig": 6761,
      "ĠpÃ¥virker": 6762,
      "ĠPresidenten": 6763,
      "sik": 6764,
      "IM": 6765,
      "Ġtvers": 6766,
      "act": 6767,
      "selskap": 6768,
      "Ġhavet": 6769,
      "skip": 6770,
      "personell": 6771,
      "stiden": 6772,
      "kking": 6773,
      "Ġmester": 6774,
      "ĠBir": 6775,
      "Ã¦l": 6776,
      "ĠkjÃ¸rte": 6777,
      "Ġkonst": 6778,
      "ĠarbeidsmiljÃ¸": 6779,
      "Ġkommunestyret": 6780,
      "Ġdans": 6781,
      "angel": 6782,
      "Ġdollar": 6783,
      "somhet": 6784,
      "ĠutfÃ¸res": 6785,
      "ĠFe": 6786,
      "Ġopptil": 6787,
      "Ġobser": 6788,
      "Ġ02": 6789,
      "Ġannon": 6790,
      "ĠIsland": 6791,
      "Ġendte": 6792,
      "Ġjuster": 6793,
      "Ġdommer": 6794,
      "Ġannerledes": 6795,
      "Ġsvensk": 6796,
      "ĠMil": 6797,
      "ĠstrÃ¸": 6798,
      "Ġoppnev": 6799,
      "ĠJord": 6800,
      "jerner": 6801,
      "Ġmotiv": 6802,
      "Ġlikestilling": 6803,
      "ĠEv": 6804,
      "ĠBen": 6805,
      "Ġskriftlig": 6806,
      "ĠLag": 6807,
      "ĠRi": 6808,
      "Ġhurtig": 6809,
      "viser": 6810,
      "alys": 6811,
      "Ġsold": 6812,
      "Ġbind": 6813,
      "Ġfrivillige": 6814,
      "perioden": 6815,
      "Ġutgangen": 6816,
      "Ġkonklusjon": 6817,
      "ĠIvar": 6818,
      "ĠRam": 6819,
      "Ġsivil": 6820,
      "ĠOb": 6821,
      "yll": 6822,
      "ical": 6823,
      "Ġskapt": 6824,
      "spensjon": 6825,
      "sstat": 6826,
      "Ġtilfellet": 6827,
      "Ġmig": 6828,
      "Ġvik": 6829,
      "Ġminner": 6830,
      "Ġgleder": 6831,
      "ova": 6832,
      "moen": 6833,
      "Ġnevne": 6834,
      "ĠBÃ¸r": 6835,
      "ĠpÃ¥peker": 6836,
      "ĠFjell": 6837,
      "43": 6838,
      "Ġforskjellig": 6839,
      "ĠÃ¥ra": 6840,
      "ĠmiljÃ¸et": 6841,
      "mail": 6842,
      "Ġyou": 6843,
      "Ġ03": 6844,
      "rup": 6845,
      "Ġgled": 6846,
      "Ġï¿½": 6847,
      "arl": 6848,
      "offer": 6849,
      "Ġtrodde": 6850,
      "ĠWe": 6851,
      "ksÃ¥": 6852,
      "Ġadministrative": 6853,
      "Ġforhand": 6854,
      "ĠHels": 6855,
      "gjÃ¸ring": 6856,
      "Ġhvorvidt": 6857,
      "ringene": 6858,
      "Ġomfatte": 6859,
      "Ġverdt": 6860,
      "istikken": 6861,
      "Ġplast": 6862,
      "Ġ57": 6863,
      "ĠFamil": 6864,
      "asert": 6865,
      "Ġtank": 6866,
      "Ġgrunne": 6867,
      "ynt": 6868,
      "aga": 6869,
      "ĠKol": 6870,
      "Ġgjennomgang": 6871,
      "Ġbakken": 6872,
      "Ġlivs": 6873,
      "ĠHelge": 6874,
      "Ġgrundig": 6875,
      "Ġ58": 6876,
      "pri": 6877,
      "ĠPeter": 6878,
      "Ġforetas": 6879,
      "ĠKraft": 6880,
      "tende": 6881,
      "Ġ66": 6882,
      "ĠRomsdal": 6883,
      "Ġgjens": 6884,
      "ingelser": 6885,
      "Ġqu": 6886,
      "Ġforutsatt": 6887,
      "produs": 6888,
      "ĠBest": 6889,
      "Ġdessverre": 6890,
      "Ġtiltakene": 6891,
      "Ġforskjeller": 6892,
      "Ġenklere": 6893,
      "ĠOt": 6894,
      "Ġreser": 6895,
      "sliv": 6896,
      "onger": 6897,
      "ĠApp": 6898,
      "kurran": 6899,
      "Ġstarten": 6900,
      "Ġtradisjonelle": 6901,
      "ĠbÃ¸n": 6902,
      "Ġlast": 6903,
      "Ġobserv": 6904,
      "ĠHele": 6905,
      "ove": 6906,
      "Ġfarlig": 6907,
      "Ġoperasjon": 6908,
      "okument": 6909,
      "vind": 6910,
      "stolen": 6911,
      "aver": 6912,
      "gin": 6913,
      "Ġutsikt": 6914,
      "erings": 6915,
      "ĠbrÃ¸d": 6916,
      "Ġstatsbudsjettet": 6917,
      "vn": 6918,
      "Ġrevid": 6919,
      "su": 6920,
      "ifter": 6921,
      "abor": 6922,
      "ĠTakk": 6923,
      "Ġaltfor": 6924,
      "aterte": 6925,
      "Ġengang": 6926,
      "Ġgrov": 6927,
      "Ġvilje": 6928,
      "Ġautomatisk": 6929,
      "programmet": 6930,
      "ĠMÃ¸re": 6931,
      "Ġhenger": 6932,
      "Ġhverdag": 6933,
      "ĠBrann": 6934,
      "ĠBor": 6935,
      "Ġforbi": 6936,
      "Ġreist": 6937,
      "redt": 6938,
      "ĠVir": 6939,
      "senteret": 6940,
      "Ġfattig": 6941,
      "ionen": 6942,
      "Ġfaren": 6943,
      "Ġforen": 6944,
      "har": 6945,
      "Ġag": 6946,
      "Ġmak": 6947,
      "Ġarkite": 6948,
      "ĠCom": 6949,
      "dret": 6950,
      "ĠRett": 6951,
      "Se": 6952,
      "Ġusikkerhet": 6953,
      "eler": 6954,
      "Ġbritiske": 6955,
      "ATO": 6956,
      "Ġball": 6957,
      "Ġrektor": 6958,
      "lÃ¸sning": 6959,
      "stisk": 6960,
      "Ġvesentlige": 6961,
      "Ġuttalte": 6962,
      "Ġjust": 6963,
      "Ġanalyser": 6964,
      "ĠGul": 6965,
      "ĠHei": 6966,
      "ĠmilitÃ¦re": 6967,
      "Ġgud": 6968,
      "Ġavdel": 6969,
      "Ġmottar": 6970,
      "ĠPC": 6971,
      "Ġlave": 6972,
      "Ġslutter": 6973,
      "Ġgrensen": 6974,
      "Ġgate": 6975,
      "ĠmÃ¸tt": 6976,
      "ĠNasjonal": 6977,
      "sretten": 6978,
      "Ġregelverket": 6979,
      "ining": 6980,
      "Ġarbeidskraft": 6981,
      "ĠFOTO": 6982,
      "Ġkunstner": 6983,
      "regel": 6984,
      "Ġkring": 6985,
      "ĠJern": 6986,
      "aktÃ¸r": 6987,
      "ĠSon": 6988,
      "ettig": 6989,
      "ikop": 6990,
      "strand": 6991,
      "Ġkonsert": 6992,
      "Ġhard": 6993,
      "snes": 6994,
      "Ġorden": 6995,
      "askin": 6996,
      "fast": 6997,
      "sammen": 6998,
      "ieren": 6999,
      "lÃ¦r": 7000,
      "ĠinngÃ¥tt": 7001,
      "Ġ95": 7002,
      "ialet": 7003,
      "ric": 7004,
      "ĠVann": 7005,
      "Ġerver": 7006,
      "Ġrus": 7007,
      "Ġforholdsvis": 7008,
      "Ġsluttet": 7009,
      "ĠAmerik": 7010,
      "ĠPort": 7011,
      "Ġmidten": 7012,
      "iten": 7013,
      "Ġbestemmer": 7014,
      "Ġvakre": 7015,
      "forbundet": 7016,
      "ĠHammer": 7017,
      "Ġminn": 7018,
      "alisert": 7019,
      "ĠIS": 7020,
      "ĠSÃ¦": 7021,
      "Ġforventet": 7022,
      "Ã¸vrig": 7023,
      "JON": 7024,
      "Ġtilbakem": 7025,
      "ĠGjÃ¸": 7026,
      "ĠProsjekt": 7027,
      "Ġbanken": 7028,
      "ykker": 7029,
      "Ġ51": 7030,
      "TA": 7031,
      "Ġkysten": 7032,
      "Ġledere": 7033,
      "Ġsatser": 7034,
      "TrÃ¸ndelag": 7035,
      "famil": 7036,
      "Ġeffektivt": 7037,
      "produkter": 7038,
      "Ġstyrem": 7039,
      "Ġmulighetene": 7040,
      "gl": 7041,
      "asi": 7042,
      "Ġrike": 7043,
      "engde": 7044,
      "mes": 7045,
      "Ġhistorien": 7046,
      "sfri": 7047,
      "Ġpu": 7048,
      "Ġliter": 7049,
      "lic": 7050,
      "Ġtjenestem": 7051,
      "inerte": 7052,
      "ations": 7053,
      "Ġik": 7054,
      "Ġnetto": 7055,
      "sil": 7056,
      "finansier": 7057,
      "obsen": 7058,
      "Ġeiendoms": 7059,
      "Ġvirkemidler": 7060,
      "Ġengasj": 7061,
      "opplÃ¦ring": 7062,
      "Ġpkt": 7063,
      "ĠPla": 7064,
      "Ġ700": 7065,
      "Ġarbeidsplasser": 7066,
      "Ġinvestering": 7067,
      "ĠItalia": 7068,
      "Ġnaturen": 7069,
      "ĠvÃ¦": 7070,
      "Ġutenom": 7071,
      "Ġple": 7072,
      "Ġgrav": 7073,
      "ĠIT": 7074,
      "riere": 7075,
      "Ġ!": 7076,
      "Ġrammet": 7077,
      "ics": 7078,
      "spr": 7079,
      "Ġforleng": 7080,
      "Ġsannsynligvis": 7081,
      "Ġstillingen": 7082,
      "Ġpil": 7083,
      "ĠKunnskap": 7084,
      "Ġstikk": 7085,
      "Ġpolitid": 7086,
      "skuddet": 7087,
      "Ġhjul": 7088,
      "stjenester": 7089,
      "Ġprinsippet": 7090,
      "Ġstatlig": 7091,
      "ĠLagt": 7092,
      "ĠRÃ¸d": 7093,
      "Ġfortel": 7094,
      "assene": 7095,
      "Ġhit": 7096,
      "Ġbidratt": 7097,
      "Ġillust": 7098,
      "Ġprisene": 7099,
      "Ġlavt": 7100,
      "Ġsikret": 7101,
      "fol": 7102,
      "Ġbeskriver": 7103,
      "stjenesten": 7104,
      "ĠsÃ¦rlige": 7105,
      "Ġtilgjengelige": 7106,
      "Ġfysiske": 7107,
      "jesel": 7108,
      "Ġfangst": 7109,
      "Ġgodkjenning": 7110,
      "iven": 7111,
      "elly": 7112,
      "itering": 7113,
      "ĠSolberg": 7114,
      "Ġegg": 7115,
      "66": 7116,
      "Ġenstemmig": 7117,
      "ĠdÃ¸mt": 7118,
      "Ġinngrep": 7119,
      "ĠÃ¸nskelig": 7120,
      "Ġbenytter": 7121,
      "Ġvurderingen": 7122,
      "Ġdriften": 7123,
      "cu": 7124,
      "fulle": 7125,
      "ĠHagen": 7126,
      "ĠAkt": 7127,
      "ĠJak": 7128,
      "Ġslapp": 7129,
      "cl": 7130,
      "igh": 7131,
      "ĠSpÃ¸rsmÃ¥let": 7132,
      "Ġhjemmes": 7133,
      "Ġsikrer": 7134,
      "lim": 7135,
      "ĠKristiansand": 7136,
      "ĠTekn": 7137,
      "Ġutvalgets": 7138,
      "Ġent": 7139,
      "ĠJe": 7140,
      "Ġtriv": 7141,
      "Ġopplevd": 7142,
      "ĠEM": 7143,
      "Ġrommet": 7144,
      "ĠsÃ¸nn": 7145,
      "odd": 7146,
      "alla": 7147,
      "Ġpartier": 7148,
      "fa": 7149,
      "Ġuttaler": 7150,
      "skostnader": 7151,
      "ĠNar": 7152,
      "ustad": 7153,
      "sordning": 7154,
      "Ġforbe": 7155,
      "ĠMand": 7156,
      "irekte": 7157,
      "Ġdit": 7158,
      "En": 7159,
      "press": 7160,
      "Ġslit": 7161,
      "Ġsykeple": 7162,
      "Ġgave": 7163,
      "Ġbarnehagen": 7164,
      "sperioden": 7165,
      "ĠÐ": 7166,
      "Ġtakt": 7167,
      "igen": 7168,
      "ĠAir": 7169,
      "Ġsatse": 7170,
      "revisjon": 7171,
      "Ġvelkommen": 7172,
      "Ġsteg": 7173,
      "etning": 7174,
      "pert": 7175,
      "Ġ1988": 7176,
      "Ġpolitikere": 7177,
      "ĠForsvaret": 7178,
      "Ġspurte": 7179,
      "Ġlyde": 7180,
      "ĠhÃ¥p": 7181,
      "ĠRy": 7182,
      "Ġforedrag": 7183,
      "Ġdigitale": 7184,
      "Ġfree": 7185,
      "Ġdomstol": 7186,
      "Ġseri": 7187,
      "vakt": 7188,
      "ĠKart": 7189,
      "otek": 7190,
      "veksten": 7191,
      "markedet": 7192,
      "spolitikk": 7193,
      "Ġhvorav": 7194,
      "stjeneste": 7195,
      "Ġboka": 7196,
      "fre": 7197,
      "ĠHordaland": 7198,
      "Ġartikkelen": 7199,
      "Ġforutsetninger": 7200,
      "gruppa": 7201,
      "grader": 7202,
      "arn": 7203,
      "Ġstyrings": 7204,
      "Ġorganisering": 7205,
      "Ġinnspill": 7206,
      "amet": 7207,
      "Ġgard": 7208,
      "Ġutforming": 7209,
      "ĠnoksÃ¥": 7210,
      "Ġantar": 7211,
      "retts": 7212,
      "ĠMarie": 7213,
      "Ġkne": 7214,
      "Ġkaller": 7215,
      "ierne": 7216,
      "Ġrunde": 7217,
      "egrupp": 7218,
      "Ġtjenesten": 7219,
      "bi": 7220,
      "ND": 7221,
      "boks": 7222,
      "Ġkvaliteten": 7223,
      "Ġkorte": 7224,
      "siktige": 7225,
      "Ġplassen": 7226,
      "ĠnÃ¸dvendigvis": 7227,
      "ĠArbeidet": 7228,
      "Ġbeholde": 7229,
      "virksomheten": 7230,
      "ĠPo": 7231,
      "Ġkontak": 7232,
      "Ġfinan": 7233,
      "ĠRune": 7234,
      "legges": 7235,
      "salg": 7236,
      "ĠSport": 7237,
      "smyndighet": 7238,
      "elet": 7239,
      "kampen": 7240,
      "ĠLitt": 7241,
      "Ġbuss": 7242,
      "Ġlovens": 7243,
      "Ġregional": 7244,
      "agra": 7245,
      "Ġverdien": 7246,
      "ulert": 7247,
      "illet": 7248,
      "astro": 7249,
      "ĠLev": 7250,
      "oil": 7251,
      "Ġelektronisk": 7252,
      "ella": 7253,
      "Ġfulgte": 7254,
      "ĠSov": 7255,
      "grad": 7256,
      "Ġoppmerksom": 7257,
      "ĠBjer": 7258,
      "jÃ¦r": 7259,
      "Ġmog": 7260,
      "ĠPol": 7261,
      "oo": 7262,
      "sti": 7263,
      "ĠðŁ": 7264,
      "barhet": 7265,
      "Ġoppfylt": 7266,
      "Ġperfekt": 7267,
      "spartiet": 7268,
      "Ġopplyst": 7269,
      "97": 7270,
      "Ġenheter": 7271,
      "indrift": 7272,
      "Ġdrevet": 7273,
      "elva": 7274,
      "Ġsosialt": 7275,
      "Ġendres": 7276,
      "somrÃ¥det": 7277,
      "Ġhalvt": 7278,
      "ĠAvis": 7279,
      "Ġgjenopp": 7280,
      "ilig": 7281,
      "2008": 7282,
      "ĠSki": 7283,
      "Ġtallene": 7284,
      "tas": 7285,
      "ĠSosial": 7286,
      "ĠLi": 7287,
      "Ġgjent": 7288,
      "klubb": 7289,
      "ĠdrÃ¸ft": 7290,
      "ĠForslag": 7291,
      "Ġsyv": 7292,
      "Ġklokka": 7293,
      "Ġfungere": 7294,
      "Ġparter": 7295,
      "ivalen": 7296,
      "Ġumiddelbart": 7297,
      "lade": 7298,
      "ĠRagn": 7299,
      "mÃ¸te": 7300,
      "Ġentre": 7301,
      "Ġfastsettes": 7302,
      "ĠNorway": 7303,
      "sÃ¸konom": 7304,
      "fondet": 7305,
      "Ġtapt": 7306,
      "ĠHall": 7307,
      "Ġpresent": 7308,
      "Ġyngre": 7309,
      "ĠkjÃ¸rt": 7310,
      "ĠsÃ¸knader": 7311,
      "sky": 7312,
      "EK": 7313,
      "Ġbetre": 7314,
      "marks": 7315,
      "Ġseng": 7316,
      "kode": 7317,
      "Ġkommu": 7318,
      "Ġfersk": 7319,
      "sevne": 7320,
      "ĠoppnÃ¥d": 7321,
      "Ġsendte": 7322,
      "Ġresul": 7323,
      "Ġkilo": 7324,
      "Ġskilt": 7325,
      "runn": 7326,
      "Ġnar": 7327,
      "Sp": 7328,
      "Ġbevilget": 7329,
      "Ġfrihet": 7330,
      "mund": 7331,
      "ĠStrÃ¸m": 7332,
      "Ġplu": 7333,
      "Ġdikt": 7334,
      "NU": 7335,
      "ogle": 7336,
      "ĠKristin": 7337,
      "fatter": 7338,
      "ebet": 7339,
      "OK": 7340,
      "Ġsidan": 7341,
      "anlegget": 7342,
      "sendt": 7343,
      "Ġstraffe": 7344,
      "edirektoratet": 7345,
      "endom": 7346,
      "Ġtildelt": 7347,
      "Ġif": 7348,
      "ĠFinansdepartementet": 7349,
      "ĠKrF": 7350,
      "Ġ62": 7351,
      "Ġinnb": 7352,
      "veksling": 7353,
      "Ġningen": 7354,
      "ĠRolf": 7355,
      "weg": 7356,
      "kommer": 7357,
      "Ġklag": 7358,
      "Ġ52": 7359,
      "ĠÃ¸deleg": 7360,
      "tein": 7361,
      "ĠStyr": 7362,
      "Ġunderhold": 7363,
      "krig": 7364,
      "100": 7365,
      "ituasjon": 7366,
      "stin": 7367,
      "syning": 7368,
      "Ġsed": 7369,
      "Ġhytte": 7370,
      "Ġtilstede": 7371,
      "ĠKommunal": 7372,
      "bildet": 7373,
      "ĠKost": 7374,
      "Ġperspektiv": 7375,
      "ĠCity": 7376,
      "valgte": 7377,
      "ows": 7378,
      "skar": 7379,
      "ĠInternett": 7380,
      "Ġrussiske": 7381,
      ":)": 7382,
      "Ġsituasjoner": 7383,
      "verdien": 7384,
      "Ġforestil": 7385,
      "Ã¶r": 7386,
      "iew": 7387,
      "ĠRev": 7388,
      "sinn": 7389,
      "Ġbebo": 7390,
      "ĠDrift": 7391,
      "Ġregistrering": 7392,
      "Ġnormal": 7393,
      "liste": 7394,
      "Ġoverskudd": 7395,
      "Ġrettss": 7396,
      "mask": 7397,
      "fug": 7398,
      "ĠSven": 7399,
      "Ġreiste": 7400,
      "ĠHelgeland": 7401,
      "beveg": 7402,
      "Ġdatam": 7403,
      "ĠOSL": 7404,
      "Ġopplevelse": 7405,
      "ouse": 7406,
      "Ġplutselig": 7407,
      "olje": 7408,
      "Ġenighet": 7409,
      "undt": 7410,
      "Sk": 7411,
      "orth": 7412,
      "Ġsammenlik": 7413,
      "Ġsum": 7414,
      "Ã¥rige": 7415,
      "Ġmetode": 7416,
      "regi": 7417,
      "ĠHvem": 7418,
      "ec": 7419,
      "stekn": 7420,
      "Ġdiskrimin": 7421,
      "sig": 7422,
      "Wh": 7423,
      "ĠSenterpartiet": 7424,
      "skader": 7425,
      "Ġplikter": 7426,
      "ĠFer": 7427,
      "ĠNi": 7428,
      "nemnda": 7429,
      "film": 7430,
      "Ġbyens": 7431,
      "Ġpetrole": 7432,
      "Ġselskapets": 7433,
      "Ġbygde": 7434,
      "Ġpasienten": 7435,
      "que": 7436,
      "Ġgram": 7437,
      "ting": 7438,
      "Ġmult": 7439,
      "forvaltning": 7440,
      "Ġbyer": 7441,
      "ĠavgjÃ¸relse": 7442,
      "fÃ¸": 7443,
      "57": 7444,
      "skomiteen": 7445,
      "Ġmotiver": 7446,
      "Ġtrygde": 7447,
      "Ġinviter": 7448,
      "inert": 7449,
      "SP": 7450,
      "samlingen": 7451,
      "ĠSande": 7452,
      "Ġinnled": 7453,
      "ĠAftenposten": 7454,
      "Ġmunn": 7455,
      "ĠFinland": 7456,
      "Ġlette": 7457,
      "Ġdan": 7458,
      "ĠInnen": 7459,
      "liktig": 7460,
      "ĠKunst": 7461,
      "so": 7462,
      "Ġengasjement": 7463,
      "orld": 7464,
      "Ġramm": 7465,
      "Ġmaster": 7466,
      "Ġuttalt": 7467,
      "Ġoverfl": 7468,
      "ĠRegion": 7469,
      "Ġjente": 7470,
      "Ġskatter": 7471,
      "Ġhvite": 7472,
      "ĠSo": 7473,
      "Ġoppdaget": 7474,
      "Ġtungt": 7475,
      "ĠTR": 7476,
      "Ġgjennomsnittlig": 7477,
      "Ġnorge": 7478,
      "ĠAndreas": 7479,
      "ĠSpania": 7480,
      "Ġprog": 7481,
      "98": 7482,
      "Ġkjenne": 7483,
      "ĠinnfÃ¸re": 7484,
      "Ut": 7485,
      "Ġhendelser": 7486,
      "ĠKari": 7487,
      "Ġusikker": 7488,
      "Ġauka": 7489,
      "Ġinnovasjon": 7490,
      "ĠstrÃ¸k": 7491,
      "Ġteater": 7492,
      "Ġassist": 7493,
      "Ġgalt": 7494,
      "otter": 7495,
      "Ġstandpunkt": 7496,
      "ĠKo": 7497,
      "Ġbens": 7498,
      "ĠkjÃ¸pte": 7499,
      "Ġbredt": 7500,
      "ferdsels": 7501,
      "ĠGrupp": 7502,
      "Ġfavoritt": 7503,
      "ĠlÃ¸pende": 7504,
      "stilbud": 7505,
      "Ġfakultet": 7506,
      "Ġfjellet": 7507,
      "itar": 7508,
      "Ġskudd": 7509,
      "Ġdyp": 7510,
      "Ġpause": 7511,
      "Ġinnflyt": 7512,
      "ĠufÃ¸re": 7513,
      "ĠoverfÃ¸res": 7514,
      "Ġ120": 7515,
      "Ġgjester": 7516,
      "Ġfrig": 7517,
      "ĠTrÃ¸ndelag": 7518,
      "Ġytre": 7519,
      "ordninger": 7520,
      "ĠTu": 7521,
      "Ġcont": 7522,
      "givende": 7523,
      "Ġrepar": 7524,
      "ĠDom": 7525,
      "Ã´": 7526,
      "kje": 7527,
      "sjonen": 7528,
      "Ġspesiali": 7529,
      "Ġkombinasjon": 7530,
      "yer": 7531,
      "departementets": 7532,
      "Ġsving": 7533,
      "ipapir": 7534,
      "iskap": 7535,
      "ĠinnfÃ¸ring": 7536,
      "Ġprogrammer": 7537,
      "oppen": 7538,
      "isa": 7539,
      "ĠmÃ¥lt": 7540,
      "Ġgeb": 7541,
      "ĠGratis": 7542,
      "ĠMagnus": 7543,
      "ferdsel": 7544,
      "Ġkritisk": 7545,
      "Ġmedisinsk": 7546,
      "ĠJesus": 7547,
      "personer": 7548,
      "ĠSiv": 7549,
      "Ġvanskelige": 7550,
      "ĠBakgrunn": 7551,
      "ĠOp": 7552,
      "hengige": 7553,
      "Ġ54": 7554,
      "Ġ77": 7555,
      "ĠtrÃ¥": 7556,
      "Ġformiddag": 7557,
      "ĠSentral": 7558,
      "Ġovernatting": 7559,
      "Ġplante": 7560,
      "Ġnokre": 7561,
      "____": 7562,
      "ower": 7563,
      "ĠFNs": 7564,
      "Ġkonkurransen": 7565,
      "ĠNATO": 7566,
      "ĠÃ¦re": 7567,
      "avene": 7568,
      "ĠRand": 7569,
      "Ġpan": 7570,
      "ĠArkiv": 7571,
      "irer": 7572,
      "Ġkompon": 7573,
      "bot": 7574,
      "Ġgunst": 7575,
      "Ġtitt": 7576,
      "ĠForslaget": 7577,
      "casino": 7578,
      "Ġfradrag": 7579,
      "Ġveit": 7580,
      "skel": 7581,
      "Ġbedriftene": 7582,
      "vegen": 7583,
      "Ġfastsl": 7584,
      "51": 7585,
      "ament": 7586,
      "ĠFelles": 7587,
      "Ġforhandlinger": 7588,
      "hÃ¸g": 7589,
      "ralen": 7590,
      "56": 7591,
      "Ġku": 7592,
      "givere": 7593,
      "ya": 7594,
      "ĠProsjektet": 7595,
      "problem": 7596,
      "Ġnevnes": 7597,
      "Ġveksten": 7598,
      "Ġinnstillingen": 7599,
      "Ġenor": 7600,
      "Ġskiller": 7601,
      "Ġtreff": 7602,
      "ĠMatt": 7603,
      "sering": 7604,
      "gningen": 7605,
      "lend": 7606,
      "Ġanled": 7607,
      "Ġbygninger": 7608,
      "istan": 7609,
      "smenn": 7610,
      "Ġoch": 7611,
      "Ġelsker": 7612,
      "Ġavgrens": 7613,
      "Ġarbeidsled": 7614,
      "skontroll": 7615,
      "somrÃ¥de": 7616,
      "Ġansett": 7617,
      "ĠAlex": 7618,
      "entre": 7619,
      "Ġalminnelige": 7620,
      "Ġkampan": 7621,
      "Ġnarkot": 7622,
      "Ġlevende": 7623,
      "59": 7624,
      "Ġskaff": 7625,
      "ese": 7626,
      "Ġskjema": 7627,
      "Ġskolene": 7628,
      "Ġnegativ": 7629,
      "areal": 7630,
      "kjÃ¸ring": 7631,
      "Ġfamilier": 7632,
      "ctor": 7633,
      "Ġkorn": 7634,
      "ĠOSLO": 7635,
      "Ġsymptom": 7636,
      "ĠKyst": 7637,
      "Ġ04": 7638,
      "lesund": 7639,
      "Ġtrygt": 7640,
      "Ġalternative": 7641,
      "ĠTotalt": 7642,
      "SV": 7643,
      "Ġhevdet": 7644,
      "Ġklager": 7645,
      "Ġparagraf": 7646,
      "Ġkjerne": 7647,
      "Ġfo": 7648,
      "fritt": 7649,
      "avdelingen": 7650,
      "eltet": 7651,
      "Ġverdif": 7652,
      "Ġtimen": 7653,
      "ansene": 7654,
      "Ġhovedsakelig": 7655,
      "Ġfastsette": 7656,
      "ley": 7657,
      "Ġvarslet": 7658,
      "irektiv": 7659,
      "Hotell": 7660,
      "igin": 7661,
      "ĠInnst": 7662,
      "ĠÃ¥pning": 7663,
      "Ġposten": 7664,
      "Ġelva": 7665,
      "idepartementet": 7666,
      "hy": 7667,
      "Ġnav": 7668,
      "Ġmenneskerett": 7669,
      "Ġfylle": 7670,
      "driv": 7671,
      "skade": 7672,
      "Ġavisen": 7673,
      "betaling": 7674,
      "Ġfemte": 7675,
      "ĠIKT": 7676,
      "ĠFremskritt": 7677,
      "Ġbost": 7678,
      "Ġatom": 7679,
      "Ġinfl": 7680,
      "Ġtele": 7681,
      "ĠInstitutt": 7682,
      "58": 7683,
      "Ġattrakt": 7684,
      "fÃ¸lgende": 7685,
      "Ġtrenings": 7686,
      "institusjoner": 7687,
      "Ġalternativer": 7688,
      "ĠPors": 7689,
      "Ġskred": 7690,
      "serien": 7691,
      "Ġverste": 7692,
      "Ġselvstendig": 7693,
      "ĠSF": 7694,
      "Re": 7695,
      "yldig": 7696,
      "Ġsamiske": 7697,
      "Ġbygning": 7698,
      "Ġfunksjoner": 7699,
      "inerer": 7700,
      "ystemet": 7701,
      "oppgjÃ¸r": 7702,
      "Ġidag": 7703,
      "sider": 7704,
      "Ġnam": 7705,
      "Ġkommers": 7706,
      "hn": 7707,
      "Ġ53": 7708,
      "Ġhjemmet": 7709,
      "fakt": 7710,
      "hu": 7711,
      "Ã¥ten": 7712,
      "Ġkommunes": 7713,
      "ĠSaken": 7714,
      "Ġslipper": 7715,
      "grepet": 7716,
      "Ġ1985": 7717,
      "Ġveget": 7718,
      "deren": 7719,
      "ria": 7720,
      "Ġomfattes": 7721,
      "ĠIsrael": 7722,
      "sforhold": 7723,
      "ĠGjer": 7724,
      "ĠbÃ¥ten": 7725,
      "fallet": 7726,
      "Ġtab": 7727,
      "Ġnull": 7728,
      "Ġsamarbeide": 7729,
      "idrag": 7730,
      "Ġballen": 7731,
      "Ġdefinert": 7732,
      "ĠBi": 7733,
      "Ġektef": 7734,
      "Ġvend": 7735,
      "Ġlikt": 7736,
      "arch": 7737,
      "SF": 7738,
      "ĠnÃ¦rt": 7739,
      "ilbud": 7740,
      "De": 7741,
      "lima": 7742,
      "52": 7743,
      "ĠMannen": 7744,
      "abeth": 7745,
      "hjel": 7746,
      "stinget": 7747,
      "ĠTrump": 7748,
      "Ġtanker": 7749,
      "Ġ1987": 7750,
      "Ġlaks": 7751,
      "Ġverre": 7752,
      "ĠLÃ¦r": 7753,
      "ĠTiltak": 7754,
      "Ġavkast": 7755,
      "Ġhyl": 7756,
      "Ad": 7757,
      "nÃ¦ring": 7758,
      "ĠAud": 7759,
      "Ġ1975": 7760,
      "Ġmerknader": 7761,
      "ther": 7762,
      "Ġintro": 7763,
      "vÃ¦ret": 7764,
      "ĠLÃ¸rdag": 7765,
      "ĠStatoil": 7766,
      "nns": 7767,
      "ĠunÃ¸d": 7768,
      "lings": 7769,
      "fen": 7770,
      "ĠPri": 7771,
      "Ġstilte": 7772,
      "Ġfisket": 7773,
      "Ġfornuft": 7774,
      "Ġsamisk": 7775,
      "ĠAg": 7776,
      "verdiavgift": 7777,
      "Ġbekrefter": 7778,
      "OMM": 7779,
      "ega": 7780,
      "opplysninger": 7781,
      "Ġarbeidstakere": 7782,
      "ĠÃ¥rsaken": 7783,
      "mater": 7784,
      "Ġmengder": 7785,
      "ams": 7786,
      "bakken": 7787,
      "Ġ1960": 7788,
      "Ġoppstart": 7789,
      "Ġgutter": 7790,
      "ĠRobert": 7791,
      "sentere": 7792,
      "Ġkorleis": 7793,
      "Ġbetal": 7794,
      "oris": 7795,
      "Ġube": 7796,
      "ĠKomiteens": 7797,
      "Ġkvalitets": 7798,
      "Ġarbeidstaker": 7799,
      "Ġfaktorer": 7800,
      "Ġtung": 7801,
      "Ġ59": 7802,
      "asjen": 7803,
      "Ġkull": 7804,
      "smed": 7805,
      "ĠLeder": 7806,
      "Ġmass": 7807,
      "Ġstift": 7808,
      "Ġintens": 7809,
      "Ġmodellen": 7810,
      "Ġlisten": 7811,
      "Ġorganer": 7812,
      "Ġmindret": 7813,
      "lad": 7814,
      "ĠKapittel": 7815,
      "Ġlive": 7816,
      "89": 7817,
      "fatt": 7818,
      "rt": 7819,
      "Ġinnvil": 7820,
      "Ġkrevende": 7821,
      "eds": 7822,
      "Ġhender": 7823,
      "ĠNet": 7824,
      "Ġoffent": 7825,
      "rister": 7826,
      "Ġfulle": 7827,
      "AF": 7828,
      "Ġpolitidistrikt": 7829,
      "Ġomgiv": 7830,
      "Ġbelig": 7831,
      "ĠHamar": 7832,
      "biler": 7833,
      "vedtak": 7834,
      "alter": 7835,
      "lingene": 7836,
      "ĠmÃ¥ndag": 7837,
      "ilder": 7838,
      "54": 7839,
      "Ġvaks": 7840,
      "Ġalli": 7841,
      "ĠJohnsen": 7842,
      "skjema": 7843,
      "veit": 7844,
      "ÃĨ": 7845,
      "ĠMaria": 7846,
      "Ġgaranti": 7847,
      "Ġmikro": 7848,
      "Ġutgift": 7849,
      "Ġtysk": 7850,
      "hammer": 7851,
      "iru": 7852,
      "Ġpresentert": 7853,
      "ĠstÃ¥ende": 7854,
      "Ġplatt": 7855,
      "enden": 7856,
      "Ġskogen": 7857,
      "orden": 7858,
      "sgr": 7859,
      "Ġarkiv": 7860,
      "atorer": 7861,
      "Ġrisikoen": 7862,
      "Ġminutt": 7863,
      "rerende": 7864,
      "udsjetter": 7865,
      "Ġtilpas": 7866,
      "smet": 7867,
      "ĠBus": 7868,
      "ensyn": 7869,
      "ĠnÃ¸dt": 7870,
      "âĸł": 7871,
      "Ġekskl": 7872,
      "rin": 7873,
      "Ġopplysning": 7874,
      "ĠSta": 7875,
      "Ġvoksen": 7876,
      "Ġperioder": 7877,
      "Ġprinsip": 7878,
      "Ġnedsatt": 7879,
      "utdan": 7880,
      "yter": 7881,
      "forskriften": 7882,
      "ĠbÃ¦r": 7883,
      "Ġobjekt": 7884,
      "ĠStol": 7885,
      "Ġskadet": 7886,
      "gjÃ¸relse": 7887,
      "ĠSÃ¸ndag": 7888,
      "Ġpluss": 7889,
      "Ġgo": 7890,
      "Ġeksper": 7891,
      "Ġsamord": 7892,
      "Ġdirektiv": 7893,
      "ĠdÃ¥rlige": 7894,
      "Ġdal": 7895,
      "Ġlest": 7896,
      "endÃ¸rs": 7897,
      "Ġlokaler": 7898,
      "faring": 7899,
      "Ġnyheter": 7900,
      "Ġtilsvarer": 7901,
      "Ġoverbe": 7902,
      "ĠBolig": 7903,
      "Ġutnytt": 7904,
      "Ġskuesp": 7905,
      "Ġulovlig": 7906,
      "ĠDavid": 7907,
      "renn": 7908,
      "ĠDat": 7909,
      "ĠCa": 7910,
      "ĠNytt": 7911,
      "ĠStatistisk": 7912,
      "Ġrute": 7913,
      "Ġpartner": 7914,
      "ĠHil": 7915,
      "Ġsyntes": 7916,
      "skiftet": 7917,
      "fiske": 7918,
      "Ġdaglige": 7919,
      "53": 7920,
      "Ġdeltakere": 7921,
      "bereg": 7922,
      "Ġdivisjon": 7923,
      "Ġutarbeide": 7924,
      "pene": 7925,
      "Ġhast": 7926,
      "splass": 7927,
      "ĠinnkjÃ¸p": 7928,
      "Ġfrakt": 7929,
      "Ġserie": 7930,
      "ĠDem": 7931,
      "frie": 7932,
      "jing": 7933,
      "ĠKort": 7934,
      "Ġuheldig": 7935,
      "Ġproblemene": 7936,
      "ĠLof": 7937,
      "spunkter": 7938,
      "ĠnivÃ¥et": 7939,
      "ĠBry": 7940,
      "Ġanser": 7941,
      "2007": 7942,
      "67": 7943,
      "Ġbodde": 7944,
      "Ġmedhold": 7945,
      "Ġgrep": 7946,
      "Ġalbum": 7947,
      "Ġshall": 7948,
      "Ġslutte": 7949,
      "Ġretter": 7950,
      "Ġfranske": 7951,
      "ĠMolde": 7952,
      "ness": 7953,
      "Ġstudiet": 7954,
      "ĠSvart": 7955,
      "Ġgjev": 7956,
      "onering": 7957,
      "ĠGeneral": 7958,
      "Ġsystematisk": 7959,
      "ĠProdu": 7960,
      "Ġproposisjonen": 7961,
      "irasjon": 7962,
      "Ġsykehuset": 7963,
      "kultur": 7964,
      "Ġutgjorde": 7965,
      "ĠTw": 7966,
      "Ġkonto": 7967,
      "apan": 7968,
      "87": 7969,
      "Ġgong": 7970,
      "ned": 7971,
      "vanlig": 7972,
      "sg": 7973,
      "endal": 7974,
      "Ġrutiner": 7975,
      "uru": 7976,
      "Ġmedia": 7977,
      "ĠEnkelte": 7978,
      "ĠetterpÃ¥": 7979,
      "ĠLo": 7980,
      "Ġutlend": 7981,
      "viklingen": 7982,
      "partiets": 7983,
      "Ġhave": 7984,
      "Ġbefinner": 7985,
      "jÃ¸l": 7986,
      "Ġwe": 7987,
      "ĠtilhÃ¸rer": 7988,
      "ĠÃ¸yeblikk": 7989,
      "Ġkilde": 7990,
      "Ġdisposisjon": 7991,
      "DE": 7992,
      "ĠStock": 7993,
      "oppgaver": 7994,
      "nor": 7995,
      "Ġspesialist": 7996,
      "ĠHvilke": 7997,
      "Ġkirken": 7998,
      "veren": 7999,
      "Ġinvi": 8000,
      "Ġopprinnelig": 8001,
      "Ġdepartement": 8002,
      "gaard": 8003,
      "Ġdimensjon": 8004,
      "ĠnedbÃ¸r": 8005,
      "Ġbosatt": 8006,
      "Ġundervisnings": 8007,
      "Ġinvolvert": 8008,
      "ĠBev": 8009,
      "Ġutnytte": 8010,
      "ĠKÃ¸": 8011,
      "Ġrepresentert": 8012,
      "aer": 8013,
      "ĠÃ¥rsverk": 8014,
      "Ġpeke": 8015,
      "ĠBel": 8016,
      "Ġforekom": 8017,
      "ortefÃ¸l": 8018,
      "varing": 8019,
      "Ġ1984": 8020,
      "lant": 8021,
      "âĢº": 8022,
      "alien": 8023,
      "asseng": 8024,
      "Ġbytte": 8025,
      "ĠTall": 8026,
      "vurder": 8027,
      "ĠFjordane": 8028,
      "ĠvilkÃ¥rene": 8029,
      "lei": 8030,
      "jev": 8031,
      "Ġkome": 8032,
      "ĠSkole": 8033,
      "ENT": 8034,
      "Ġmengde": 8035,
      "Ġhavn": 8036,
      "urser": 8037,
      "ekom": 8038,
      "ĠDo": 8039,
      "Ġflyktninger": 8040,
      "Ġtariff": 8041,
      "Ġavgifter": 8042,
      "Ġinvesterings": 8043,
      "Ġhensynet": 8044,
      "Ġminer": 8045,
      "ĠMye": 8046,
      "Ġkoste": 8047,
      "Ġekspert": 8048,
      "ĠSkatte": 8049,
      "Ġkirk": 8050,
      "Ġslippe": 8051,
      "stilsynet": 8052,
      "ĠHalvor": 8053,
      "Ġsing": 8054,
      "Ġmom": 8055,
      "Ġlandbruk": 8056,
      "Ġfortsatte": 8057,
      "skrig": 8058,
      "Ġleverer": 8059,
      "bler": 8060,
      "Ġpresenter": 8061,
      "Ġbringe": 8062,
      "Ġuttalelser": 8063,
      "ergi": 8064,
      "Ġskritt": 8065,
      "Ġavslut": 8066,
      "isser": 8067,
      "wegian": 8068,
      "Ġboken": 8069,
      "etid": 8070,
      "veld": 8071,
      "Ġindustrien": 8072,
      "ĠmarkedsfÃ¸ring": 8073,
      "opper": 8074,
      "slam": 8075,
      "ĠMu": 8076,
      "Ġavsk": 8077,
      "Ġkortere": 8078,
      "Ġtreffe": 8079,
      "ated": 8080,
      "Ġvegvesen": 8081,
      "Ġanbefale": 8082,
      "ĠUnn": 8083,
      "meldelser": 8084,
      "ĠEksemp": 8085,
      "Ġmeldingen": 8086,
      "Ġdiffer": 8087,
      "ĠLegg": 8088,
      "Ġuttale": 8089,
      "Ġbevilgning": 8090,
      "ĠAller": 8091,
      "IST": 8092,
      "ĠSkien": 8093,
      "Ġkvinnen": 8094,
      "sprosessen": 8095,
      "Ġtidlegare": 8096,
      "Ġmrd": 8097,
      "Ġbeskrivelse": 8098,
      "Ġbegynt": 8099,
      "strategi": 8100,
      "Ġprom": 8101,
      "ĠdÃ¥rligere": 8102,
      "Ġholdning": 8103,
      "Ġflertallet": 8104,
      "skerud": 8105,
      "Ġdekkes": 8106,
      "Ġfal": 8107,
      "lyst": 8108,
      "Ġstyrker": 8109,
      "Ġ64": 8110,
      "86": 8111,
      "ĠEriksen": 8112,
      "Ġ1986": 8113,
      "ĠInns": 8114,
      "Ġknapt": 8115,
      "Ġresolusjon": 8116,
      "Den": 8117,
      "baserte": 8118,
      "ely": 8119,
      "Ġopprette": 8120,
      "Ġeldste": 8121,
      "Ġfellesskap": 8122,
      "Ġserien": 8123,
      "Ġdrar": 8124,
      "Ġuro": 8125,
      "Ġakutt": 8126,
      "Ġheng": 8127,
      "ĠHenrik": 8128,
      "Ġoppgitt": 8129,
      "Ġtalt": 8130,
      "Ġ1977": 8131,
      "ĠGrim": 8132,
      "Ġorigin": 8133,
      "ĠNeste": 8134,
      "sprogrammet": 8135,
      "sbygg": 8136,
      "ĠInger": 8137,
      "Ġkup": 8138,
      "Ã¸mme": 8139,
      "spillet": 8140,
      "kse": 8141,
      "api": 8142,
      "Ã¥let": 8143,
      "ĠspÃ¸rsmÃ¥lene": 8144,
      "ĠKjÃ¸p": 8145,
      "ila": 8146,
      "ĠvÃ¦ret": 8147,
      "Ġsvaret": 8148,
      "Ġpubliser": 8149,
      "Ġflag": 8150,
      "Ã¸ye": 8151,
      "Ġeffekten": 8152,
      "Ġeiendommen": 8153,
      "resten": 8154,
      "usive": 8155,
      "ĠUndersÃ¸k": 8156,
      "Ġfrokost": 8157,
      "hard": 8158,
      "Ġinformasjonen": 8159,
      "Ġ1973": 8160,
      "Ġkilder": 8161,
      "ĠsprÃ¥": 8162,
      "okker": 8163,
      "Ġrehabil": 8164,
      "Ġvitne": 8165,
      "atten": 8166,
      "wards": 8167,
      "ĠIndustri": 8168,
      "ĠtilhÃ¸rende": 8169,
      "adrat": 8170,
      "Ġutbytte": 8171,
      "Ġbordet": 8172,
      "cel": 8173,
      "ĠHedmark": 8174,
      "ĠSÃ¦rlig": 8175,
      "ĠRet": 8176,
      "bal": 8177,
      "Ġoverst": 8178,
      "burg": 8179,
      "Ħ¢": 8180,
      "Ġfaktiske": 8181,
      "ansvarlig": 8182,
      "Ġvond": 8183,
      "ĠHadde": 8184,
      "Ġprodusert": 8185,
      "ĠLeif": 8186,
      "Ġkraftverk": 8187,
      "ĠoverfÃ¸rt": 8188,
      "Ġpasse": 8189,
      "Ġhusker": 8190,
      "lemm": 8191,
      "ektoren": 8192,
      "ĠÃ¥rsaker": 8193,
      "ĠWest": 8194,
      "ĠsÃ¥kalt": 8195,
      "finn": 8196,
      "ze": 8197,
      "Ġargumenter": 8198,
      "ĠCol": 8199,
      "igg": 8200,
      "Ġkonge": 8201,
      "ĠgÃ¸y": 8202,
      "ano": 8203,
      "ĠAks": 8204,
      "rerer": 8205,
      "Ġ1978": 8206,
      "Ġklasser": 8207,
      "ĠlÃ¸sningen": 8208,
      "lid": 8209,
      "agno": 8210,
      "Ġframlegg": 8211,
      "Ġdrives": 8212,
      "Ġindu": 8213,
      "Ġsakk": 8214,
      "Ġrest": 8215,
      "Ġforbundet": 8216,
      "ĠBur": 8217,
      "Ġweb": 8218,
      "Ġtit": 8219,
      "Ġsivile": 8220,
      "Ġbrukerne": 8221,
      "Ġhuman": 8222,
      "vang": 8223,
      "Ġ1974": 8224,
      "IC": 8225,
      "ĠSko": 8226,
      "fÃ¸rings": 8227,
      "ition": 8228,
      "'',": 8229,
      "teres": 8230,
      "jes": 8231,
      "ĠForsknings": 8232,
      "Ġvand": 8233,
      "77": 8234,
      "arkiv": 8235,
      "Ġopprinnelige": 8236,
      "Ġhavne": 8237,
      "wa": 8238,
      "ĠSelskapet": 8239,
      "idar": 8240,
      "kende": 8241,
      "Ġhelga": 8242,
      "ĠHotels": 8243,
      "avgiften": 8244,
      "Ġplanene": 8245,
      "Ġlevering": 8246,
      "Ġpolitikerne": 8247,
      "Ġmodeller": 8248,
      "ĠPensjon": 8249,
      "Ġhode": 8250,
      "pekt": 8251,
      "ĠMay": 8252,
      "ĠbesÃ¸kende": 8253,
      "Ġkino": 8254,
      "parte": 8255,
      "tokoll": 8256,
      "Ġforank": 8257,
      "Ġbesluttet": 8258,
      "ĠÃ¥penbart": 8259,
      "staden": 8260,
      "Ġtrafikken": 8261,
      "Ġinkl": 8262,
      "gden": 8263,
      "ĠEN": 8264,
      "ĠforeslÃ¥tte": 8265,
      "Ġprosed": 8266,
      "ĠKors": 8267,
      "Ġfotograf": 8268,
      "menne": 8269,
      "Ġkollekt": 8270,
      "Ġforbruker": 8271,
      "bÃ¥t": 8272,
      "email": 8273,
      "Ġhandlinger": 8274,
      "Ġlensmann": 8275,
      "Ġmotta": 8276,
      "Ġhom": 8277,
      "Ġbarnehager": 8278,
      "Ġmateriell": 8279,
      "ĠKÃ¥re": 8280,
      "Ġstraffes": 8281,
      "Ġforutsettes": 8282,
      "ymn": 8283,
      "eldige": 8284,
      "ĠNeder": 8285,
      "ĠRegjeringens": 8286,
      "mi": 8287,
      "Ġarbeidstid": 8288,
      "ĠHj": 8289,
      "ĠGi": 8290,
      "Ġvunnet": 8291,
      "Ġinnflytelse": 8292,
      "Ġunntatt": 8293,
      "Ġforpliktelser": 8294,
      "rek": 8295,
      "inav": 8296,
      "Ġbatter": 8297,
      "brev": 8298,
      "Ã¥ring": 8299,
      "Ġvillig": 8300,
      "Ġund": 8301,
      "Ġsil": 8302,
      "politiske": 8303,
      "Ġherred": 8304,
      "alderen": 8305,
      "Ġfalle": 8306,
      "Ġcan": 8307,
      "ĠdrÃ¸y": 8308,
      "itim": 8309,
      "Ġeffektive": 8310,
      "Ġfen": 8311,
      "por": 8312,
      "Ġbif": 8313,
      "avdeling": 8314,
      "Ġforklaring": 8315,
      "havet": 8316,
      "96": 8317,
      "Ġ1981": 8318,
      "elegging": 8319,
      "Ġregnskaps": 8320,
      "Ġunderstreke": 8321,
      "Ġsliter": 8322,
      "Ġveks": 8323,
      "orien": 8324,
      "nÃ¥": 8325,
      "ĠforÃ¸vrig": 8326,
      "sting": 8327,
      "hi": 8328,
      "ini": 8329,
      "Ġbeskyttelse": 8330,
      "Ġhimm": 8331,
      "ĠNot": 8332,
      "ony": 8333,
      "Ġomstend": 8334,
      "Ġdeltag": 8335,
      "ĠÃĺn": 8336,
      "ĠDirektoratet": 8337,
      "ĠTro": 8338,
      "lÃ¦ringen": 8339,
      "Ġdets": 8340,
      "retter": 8341,
      "ĠmÃ¸tes": 8342,
      "ĠtÃ¸rr": 8343,
      "Ġforventes": 8344,
      "landske": 8345,
      "Ġtjenest": 8346,
      "iland": 8347,
      "bei": 8348,
      "ĠUnited": 8349,
      "ĠSpesielt": 8350,
      "Ġraskere": 8351,
      "ĠSovjet": 8352,
      "sfjord": 8353,
      "ĠDÃ¥": 8354,
      "Ġstykke": 8355,
      "Ġ1972": 8356,
      "²g": 8357,
      "Ġleger": 8358,
      "Ġrapportering": 8359,
      "ĠMath": 8360,
      "gaven": 8361,
      "ĠDato": 8362,
      "Ġinneholde": 8363,
      "Ġsnitt": 8364,
      "Ġverdipapir": 8365,
      "ĠAre": 8366,
[...]
